node {
  name: "nn_input"
  op: "Placeholder"
  attr {
    key: "dtype"
    value {
      type: DT_FLOAT
    }
  }
  attr {
    key: "shape"
    value {
      shape {
        dim {
          size: -1
        }
        dim {
          size: 784
        }
      }
    }
  }
}
node {
  name: "Variable"
  op: "Const"
  attr {
    key: "dtype"
    value {
      type: DT_FLOAT
    }
  }
  attr {
    key: "value"
    value {
      tensor {
        dtype: DT_FLOAT
        tensor_shape {
          dim {
            size: 784
          }
          dim {
            size: 256
          }
        }
        tensor_content: "\256\265\230\276\361\214\237\276l\261\205\277uf\250?v\t\233\2771\020!\277/E\001;>\237\222?\243\177\370\276\333\020\331>A\367g>\2265\217\277;9\217?\355\321\t@+\031!\277k\317\005\274\212L)?~X\243\2778\332`?\2258\313>\236\035\007\277a\022\207\277\240`\247\275^\260\002\277r@:?\"\241\374\276J#&?8v\257>\230z\213\277\201B\277\277\200\014\324\277\025\320\006@H\253\376?t\260\t\277\331\213\225\277\344N\213\275\301\267m\277\245\265\241?h6\212\277F\376\252\277\355\321\251=\347fh?\353df>\3065\220=Xc\240\277p\244\373?SS\024\277\032\232\020\277\014\352\325\276\315h\203\276>\236#\277\345p\207\277\004\367\254\276Q\341\337>\205\030\004\277GM\254>aci\277\252\354\302>&\270\203\276d\352\'?P*\201\276\016\200{\277\261\214\257>yY\\?\365\322\214\277\023\005\211\277=\312z?>\241\027\277f2D?\321\307C?(f\347\277\254\311\240\277j\237\224?\035Ar\277o\275\033\277\245\373\312\277\340\177\232\277\365o\272\276\223O??`\255\201\277ZP\220\277\323\342\003>\t\203h\277\201u\005?2\201\331=\276F\333\277\316\325\304?\267W\203\277\215L\275\276F\367\325?\236\007\014?\243\342\225\277\226\220\326>\324z\224\276\254C\321\276v\023U?\365\314\210\2774XM\277hO\377>\326(\337?\344Q\237>\371\322f\277\365\032\250=\324\323<?\324x\345>\374\371\372\275\265\224\313<\340\235\254?\212.\363\276#\334\271\277wB\264\277{\203\n\277E0~?\337\361\202\277yP\302?Zs\211\277\241h\357\275\216\374Z?\014`\022?@\202\206\277f\0014\277,x\362\276\357\342\027?\301\t*?\325\003n\277\205 \360>\005\304\222=\364\357\022?\207\323\350\276z@\371?\037\330\316\276\333\233\217\277\256]E?\316\010!\277\217[P\276\244\r\353>B\010\245?\203\327\023?\002\202\306>q\265\247\2750s\314\276;\372\332>\230#9?e\314I\277#`\036?u9\r?|\264\016\277\366\024\275\275\212\305\302<\004i\316\276\3731A\276|\234T\277\037}\310\276E\315X?^~\214>yI\037@3@\266?\216\005\245>7\343C\277W\276L\276\261\250I?\367\027\300>\332c?\276\206#\261\277}ck\276\364\335/\277\022\347P?\240>\213=\376pu\277`c%\276\265\266P?\200\261\013\277>\017\241?\321Pr\276\335\013\024\2775\3554?\364\016Q\276\330\355\251?\\\243\000@K\376\304?\3367\245\277\246\'T?\232\270\313\277\341\246\307?\311e\177\277\245\346d\276\\N\021\277a\031P\275\"\247\360?\025p\340?Yg\201?eb\315>\320t\006?\355\317s\2754\244\'\277\212\234\002\276\037\322\010=\013\353\234\277\016\252\336\277\250\237n=\345\231\236?!\305\373\277\213H\017?\007\000\026@\004X\345?\004\232\267\277\240\006\242\276@\2264<\300[\374\276x\237J?\274\213\225\277\034s\276\276\016\336`?\024,\026\277\303\003\240?\345\034\306>\2700\027\277\223h\202\275^\315\022\276\330\216_\277j\327Q?YW\240?[\326)\300u\005\220\276+\355\256?:\352\016\277\321F\027?\250\026\362?\3649\306\276/\371\000\277\323\226\275?\036\354\257?\235\n\241\2764[1\277\302\362k\276\316T\211?z\231\207>\362\222\236\277C\330k\277\263\005\303?$x\024\277\371j<\275\257\\\300=\225^5\276F\225\260\276\032\200\301?\333L\306?-\3062\277}\213q\277N\220\027\277\325\323\240\277K=\212?\210\365\246\276xr\236\277\303\2607\277\257g\340<\033a\256\277\027\264<>\035,\376\276\013X\265\276\364\030\006\277;&y>\201\367\n>X>\311\276S/;\300I\023\n?k\027\"?\357\001\037\277\352\373\230?\267\027\306?\253-\274?OL\211\277\200\314o\300<\276\276>[5\324\276k\256X\277\355\246\220?\026\345O?\210\242P?\020\333\335\276\222\321\221\277\215\234z\271\333=\034\276\224\331\030@u9\344\2763:r?l\277(\27770\330>\236\022i\277Lh\215\277\007\301B\277U\235\233\276\364\010\212?\201\214>\277\213p\311?A\223\305\276\032\370\254?@k\233\277c\367\374\276Y\200\204?*\353\022\2777\005\271\276b\272\034\276\225\3115>.m\253?\235\330\337>\340\020\264>\200\216/\277\"xj>W\272\032\277\367f\205\277\224\0318?\326Q_?\301V!\277\034\353\205\276pf\211>\252L\232;9\271&\277\206\266\316\276\334\nS@\305\031\331\276\023\346\342?f\207\201:B\322\371>S\234:\275\365{\267\276lQ\007\277j\334\225\277$\035\304>\030\033\315?\327\031:\277\233\2527?\272Mv?\006\237\026@\362\245\342?C\nX=j\301\225?#\177\177\277\204\260\313?\314W\200\277\037\243\353\276s\250\002@PY\030\277\330T$\277\360\014\207?\365\356\242\2777\313\231>|\0338\277\027Z\246?MP?\276\325%%>(\231b\277,\350\021\277\206\273\333\277i\276\275?\217\250\327\276\014\302\237?ex\210>\374\267J\277\224Vg?\262\275\262\277\324\217\001\300\027M\325?\\\362\261\277\300Wt>\211\341N\277H8!\277F\354~\275\031P\027\277\010\316\007\277Q\215\234>M\352\377\277\304\343\272=\373U\347\276 \265J?\225<|?\275\3740?\3453\243?7\014#\276O\035\030\300\030\374\020\277.b\226\275e\256 ?\247\266\216?\365\277\r\277\3548\341>]\323{?\300V\205?\261\212=?<\243Q>F\2563?3\306\277?\306\002/\275\243\333a?\332\326\277\277R.\204?z_\277\276\013\226\t\277\276\330\214?\025\021\363\272K\323\373?\210\302I\276\326\242q?\340\'\026\277W\262\314?r\366\213\275\313\227\322\276`g\244<)\234\254=\253A/\276_\303\263?\333\336+\277\264b\234=\3416\007\300\204\332\'?\356^P\273\307\027\020\277\335\324\002\2770\362\262>\246\030\323?\277y\231>\244\020\240?\013I\017\276=k\264\276n\361\177\277\235\277\223\277\nb\270>\227$\246\275\325\361\240\2762\277\351\2774\276\240>\235\373\374\275fA\271?\375/Y\277\326fP?\260\342E\276\032\201\020?MA\200\276\227\217A?5\014\257\277Hp\261?\303<;\277p14\276\375\363\013@+\014\177\277\273\'\254\277\026B\000\277-i\313\277\370\312\307?$\204\225\277\321\326<>\332+\266\277\217\3014@\021\236\311?\314\271\217\276\300\032\275\276d\363c?\023\352}\277\343i\"\277\323I,;l($?\020C\005@`p\337=\376\037\305?\203\362~\275:\005\370\277\255Y*\277\036\353\342\277\371\232\276>\246C\332?\375h\017?\303\335\017@\303\273\003?\347\3544\276\177\034\272>\223\275(?t\276\244\276(\260\210\277.?T\277\355\373\355\276\016\327\204\276\020\002\313\277@\334\220?n\232\371\277\257\277n\277\300\344\220\277\351{6?_\353C?\347\323\212\277\037\2459\2775\033s?\211\250T\277f\203\251\277\325z\247\277\301\3745?\036/\241?^\000\207\276\223\n$\277\033\320X?\240\014\177>\177vm?\305\005\251=\270Q\201>\031s\233\277f\253C\300/\244\226\277\305F\225\277B\257_\277C\027\264\275\262\272\214\277\274\211b\277\213\241w\276\331\242\347\277h\037:\275\331u\220?\030\362\035\277\310\237\217?\347_\353?j\017\310\275\231\202,=Ia\200\277\006\263Y\277%\323\351?(\024\023\277>JG\277;+s?\016wm?\037\253\320\277[\2516?9i\003\277m\200\255?\315\313\023>%N\205>\322\356\267?K\262[\277k[\276\276\207^\245\277\2703\361\277\242\232/?o\031V?h\312\205\277\226\325\323>\014\354\322?\3250\213\276\227\026\017@7\253\002@\233\335\276?\376\271\222\277\310/\304\275\264p\r\277\206o\252=q\'\263\277Q\351\232\275\006\336s?[\n\357?\361iO?\373\373\024>k\220\354\2771%\212>\351\320\006\300x\252\365>h\247A=\223\312u\277\261\356\355\277\270@\326\275e\000\231\277\361t0?\315!\204>.\025\305\275\226\376\005>o\372Q\277\313j!?X\2330?;Q\214>\205H\014\300\0073\270\275\327\224\273\275\301\036\220?\0003\205?\304\261^\277e\317\203?9\302\302?G\357y\276\373\367\341\277\334Bc>\237\223\266?r\002\241<yD\221\277\276S\360>\201cw?\231\006%>\330\331\260\275p[5\277\366p\000\276YK\016?\" \024\277H`\301?n\370#?\221\200\027?\014\230\226\276\334d\274>\330`\023\277\265\217L?U\nk\277\2502n\277X\307\027\277T\337#?\226\243\207\276\025\356\306\277\314;M?x\027\003?\375\007\232?]\333\227>\005\255\n\277\233\340\027?\345/\010\300\221\256\231>\010\366\273\276\251\250\256?\365\311g\276\355\371\315>:\323#?\003\037\022\277\243!\364>\362\026\321>oC\002\277j\335t\277m\341\016@e96\276~6:\277\247\374\224\276#h/?\034\"B?\275DQ>\3203\337\277D\301\223\277%\\\333=v\350\340=k\225K?<\244\004?x\253\275>Vy\025\277?\351\312>\374K\320\275\022\300e\277\231\271\n\276G\206\021=\3264\022\277\202nX?\002\271\240\276\177/\237\276\311\240p\277uD\364\277\203\005\247>PIY\277\266\031\344;\352cu?\270L\273?\227\331\r\300\027g;@\237j^?\336_\227>\222o\030?\202\314\365>r\007\215\276\035\004\220\277\324v\243?\225G\"\277\272e+\277\303\357\244\276\314`~?\323\313\323\276z\301\002@\203\230}?\356U-\277^\351\016?\247\302\010\276\364\346$?\027\311e=TLN>X\261\214\277\306\237w\277\244X\326\276%1\203\277@\345\222\277\273Z\266\276+[_>~\350\335?S\"\331\276X-\017\276n\375\241\275\026\2106\277\223\342\374\277\255\224\274\275$;\006\277\320\353O\277e\215M\276\276\226\204\276Y\002*\275\351*\014?L;\243?fK\270\276\345r\005?\232\212\222\277\366>\220\277\217\257\227>K\303\227?:\033\370\276$\345\202>\037\225\312?\247\250\216?\300\205\307\276\221\344\251?\344\311\303?\010H6>\203\004\206\276\212\236\003<H\365\262\274\017\255)\277xK \277\266\214\364=$\256\022\277\240%\304\2778}\007@\303\3012>slZ?< \355\276\316\325\210\276\201\3627?BL\024\274,\276\214?\020\007H\277\007\024\212\277\377\367\205\2771\032I\277^n\005\300\314I\252?!\272\206=\377\346\003\300\324\005L?\360`\"?\266\263\275\277+\316^?\327\256\301>\304\036\257=4\254\346>nzR\277k\016\255\277\306\346\207?\227A\201\276\274\313\262?\353\370j?\307\364\375>\010\367\332\276\360\344l\277\333\n\\?\306\017\026\276m\300\240>{\234o\277q\304f\277\343[\000\300`N9\277\243\264\357\276x\022\005?k|w\276\215\031\251?\245\353%>\214\3314@\325\017\204\276G\013A\277h\356\004@l\024\267\277\324\364\035?\330O\223>\311\032\351\276x\333\232?>wc\276\267\264\327=\242\3734@\242\034\025\2777\320x?$t\242>k\345\256\276\014\332~?\277\037\223\277\212\340k?\364uA>\276\215\036>\323\251\337\277G\246\234\277\363.\t\277sc(\276\271\211\214\276T4_>\327\233\225?\366\267\257>\310\363i?]\'\234\276\360\226e?H\342I>\256\236\023\277\307\255\204\277~7#>\232\332\367\276\206i\334?\267\373\241?\354\224\317<\033\351\230?\321v\303?tS\004\300\337]D>\013\026\354?M\337\020\300 \273*>iS(?s\241\374\276Q\373\372\276\273\352F@Y6\017\276\006\271\322\277\363T=\277\225\001\025\300\030\313\271\277\305\334\321?H\207L?\243#\352\276\234\262\270=\353\371E>\306!\351>\366\037\372\276\377+\344?\360\240S\274\313@\226\277\320\227\007\276\023\3462?\362\t\215>{\202\022@\010\212@\276\330\204R?\336\370\206?\031]\201\276 \305\027?\037\260>\277\325\337\030?\270\316\234?M\236\337=Q\204\347>\371$\201>M\200\030\277?\037\n\277)\266\252\276\001\347N?\350Gf=\221\222\207\277Y\2450?\242!$?\030c\n\300\241\201w\277\207\227\200\276\033\177\033?\272x\226>\263\2530>$\250\262\275\310h\235?L#|\277\225\017\t\277\032z\206>\313\301U\277\341\312\202?\304\223\264>\231\340$\277hG\216\277RKk\276\244r\202?\005\264\364?\262\000\023?[\352\006\300G$\224?H\221\254\276\305a\220\277\026v\202\276\313V?=\260\202q>\005pP>1\"\020?\023\232\317>V\357\355>}\016\213?\226\020f\277\352l\026\277\256Z\243?=\277\013\300I\377Z\277$\353\014@\213\374\234\275\031\322\021@\207\306\216?\274\177\027\276\303\005{\277\016u\273\276J\2319\277\002\244\032?[\377\222\277\377\340\222?\277bj?hu\212>\215e/?\256\\\275>n\314\206=f/[\276Gpj\276\035O\203\276\020\325\256?X\305\360?\327\371\314\277\257\371`\277\344\270\241?\3103\005?~\005a\276\263i\374\276\223\222\203\276q\353\225\277\353\205d\277Y\314J\276\3408\241\277\330\310\311\274\246\022??\210\264\271?\022\255\377>\277\325\347\276\234\220\203?<\002\346\276/\204Z\276\203\274\004?D]S?\377\263\204?\376\247\274?\276;U?\302O\366\277\"\224\024\277\302N\000?\3535\\?\252\233@>E+\377?\232\323\242\275#\017\307=(\021\240?FO\000\277o\273%\277Q\310\265>9\212\274>\355\345y?\025\360\024\276\245\365?\277\200\035\303>\"\000i>\323\317\232\276\301CU\277.s\316?\2566\016\277N\366\223\277fZ\024?\304QR?@\\\274\275\3514}?]\332\203?:~\204?\273\243\014\277\231\336\367\276\033\214\234?\247\025\263\277\300\305o\277\355&\024\277cm\031?z\273\217>\330\337+?/\237>\277\207i\034?\037\316?\300\375\013\260\277\205\332\321\2772\340\276?\374\331\264\277\266\026{\277b\230\265\277\273\352m=F\2157\277&\'F?\326\215\212>\343\001\206?\2018\024?Y\377\240?\010\374F\277+[::\225\252\024@Q\272\317>\205\253n?\365=\277\277&\035\221\276\256-\201\276\202\000\n?\264%A>1\325\241\277\205\323\266\277[\030\373?`\242\324=%\202\201?u\003S\277\214U\203\277\316\352\213?\364#\322\276\014\020\365>\327\344\034?!\236\026?\017\003\014\277e`\212\277\225e\003?\237]D?eU\223\275\302m\001@>\374\340\277\364\220\350>)\037\227?g}\207\277O\227\305>\356B9?=\301\215?L\006\222\277\326\234y?\341\364\364\272N\006\251>\334\264\364\277[*\231\277/-\016\277\030wL\276a\334\017?\327)\"?%\267Z?\206\233\242\277%:\313?\214<\223?\\\252-@\243\362B\274\021\027?\277\363!j\277\377`6\277\255\3376\277\232g\025\277,\023\245\275\354\323N\277W\027o?\317\235\030@\312F=?L\303\332\277q+\234:\277\203\224?\245\366\013\277q\267\010?\231\202\232?\343\337\244?\245\037\276?\246\235\366\277\333\026[\276\322\027\003\277[tB\277\376\314\205\276\264\237\316\277\366\r\215\277D\361\007\276\313\274!\277\031\305\234?z\333K\277W}/\276\352Z\241\277;\274.?\300\024\217\277\363\361\033\277<D\313\276\262*\351\276\017\246\005>\377K6\277\353\335%\276\243\3738@\2101\014>\2624\243\2771FS\276\322\025\353\276h\007\350>\234s\315>\374\253@?6\205K?&\271\377>\364*\023\277J\010\342>9w\016?7T\300\277\320\032\252\277}\207\261\276\324K\205\274\230_\005\300\2536\343\276\353\250\375>\363\331\022\277Q\312\350>L\312_\277:\236\026\2776\3653\277H]\024?\225\253\322\275\241&R\277P\0103>e9n?\224\230\211>\262\214t\277\037\237\032>9\335\230\276R\263\033\276F\323\371?\211\035e\276Z\372\216?\201q\326?\234\304\226\277P\336\234?%\022.\276]s\020?\261\325o?\'ph\277/\365R\277\275\022\273\277\271\321\234>\222\354\225<\215\212\003?Z \023\300\341\211\221\277P\n\233;r\300\266<\302\016\013\277\337\360\027?\0053\225?\265hS?\364\211~\276\351}\313?\0349??$\013\241\276D\232\034?\271\225-\277w|\316?\031\371E\276\021\367A?\200\304\260\277\026\261\'\275\265PE\2770\352\005?h\312\232\277@\021\256>%\030\214>T\347\277\277hG\003@}\323\321\275\257Q\022\277\302\220R?E\274]\277^j\366?\353\037\304?\331ZH?sy\350\277_\324\200\277d~\207>\365\213C?\301\211T\277\247R$\277\320\337$\276\243T\232\277\251\')=)8|\276\327Hq;\315\006\222?\010\374\216\276\'\262\303?7\215%\277q\010\361>\262x8?T\277C\277_\023]\277tG\006>\026\304\001\277/\275\241?\222-\344=D\240_>t\221B\277\343\327\342\276.n\232?)\311\353\277H\262j\274\367\023\225?\277Q\255\277\352S\345\276\035\t}?\255U\245\277\376\232\363>\275\253\251?\327\352W\277\200Z\004\277\200\375\010\277\177\316\316?\264\010\333>>b\305\276\205\234\371>}R\227?\247\247[\277\3734\033?\\\025\222>0\200v\274\333\304\355\275\342(\027\2762ZS=\244\314\330?\371\314\374\276\332\363\342?@E>?\030H\026\277\316\030\335\276J\241\227?6\353\346?\017M\016\276\371\375\201\277x\271\013\276O\254\"?\214 \">#\002\322\277\360.\001@9\026\320>\356\312\001?\324\030\353\277\033L\251?\260\377<?b9\305\275\035\201(\277\307\007\251>E\n\257\277\240E\364\2747,\307\275\302\223\210\277Q\227\303\277\307B\236\277|[\t\276\201t\335?\304\353\336?\325\313l\2760Ng?\242\252\014\277\225 \017?\202\344\031\300\357\267\207\277\322\225f>\367\342$?;\375m?\205\033C?\232\026n\277}U\231?\017\203E?\033\353\204\276z\335\017?\371\372\375\277,\215^\276\2778\237\276\001Hw?}\275\247\276O\270\020>\232\034\004?\323\333\214=x\306\377?B\323\255?4R\311?\002T{?\031\353\231?%\253`>\364\033\301\277\221{\"\277\310\335\255?\027(d\276\255\251\232\276\261I\314\277w$T\277=P\224?-)\313>\325F\010>\005 +\276W4G\276\273A\276>\354x\007\276\274m\300\275t\207\256?;S\234\277\t\2671\276\013\354\201?\341\244\375\276\017\241\300\277|\"H\277\034\266=\277\254\315{\276\'u(\277\227#\345\275A\240\361\276\367\307\330\275z \220?]\337R?\366#\206?\313\371\224?\323\023\315\276K\177\210\276\370\231U\275\356H\312\276O\335/\276\240\010\006\300\0136\221?r\257\240\277\000\2535\274L3o?9!\031?7\021`\277J<4\277\2460\t\300Yt\205?\244\026\003=\307.A@O\0050\300\327\021\205\274}\331\240?\216VM\277\335\205\233?\346s\021\277}\023\310>q\230\327\276y\230\356\277%{\030@\220$\357?f\376\276?\212\000\370?\374\364\003?}aB?\247\036\311?V\255\353<\311\325\007?L\005z\277\246y^?\340\001\240\276k \224?qw\r@n\034\006\276\241\033R?\\5\325\276[\361\246?\205\212\014?\025\306)\277\376Q\233\277I\333S?\205@\302\277\320\315W\277!&\033\277\365\356\373>`v\366\276\333\277\324>LU\270\277#\006\206?\344\235c\277\362v\207>\201\217\207\277\324)\237?HAc\277UY\237\277\334\204\222\277\207\267\232\276\367\335:\277\357\215d\277\004\313\316?D\271\r\300x$f>\341\331`\276\013R[\276\301D\"@\261\207\216>\000\245\014\277\003\362\360?\'[=\277\346r\236>\030\342\356>F:\220\277\367Nr?\224\301\007?\220\030\355=3\237\002@bd\274>(\211\004@\275O\006\276\225\207\002\2776S ?\027RE?\240&\'\277AE\242?FdI?g\350\321?\240\275y?&\333|\276\247\374\326\277\237\265\310?q\321\245?$N\360?`\206X\277\013b\222\275\271A=?\213\2368\277\201\346`=jd\222\277)zm?\023\253<?aq\024\277#\307\345?=t\030>\225F$\277\276\324\323>0]H>GhW?Z@\241?y\233\341>\361\026E?\377\347)\277_\301\376?\361\004\207?\327h\236\277\035\224\225\277\033\232\234?\350sS\277a\014\256>\035\270\003?\333\024\237\2756\375\215\277\262\254\335\275L\364\344?Q\310\273=W\253Z\276i\343@\276&\371\351\276\353\334\215?)\276F?\211\013>\277\026\270\036>\352\350\031?\226\327\274?\223\341\200\277s\233\370>k\264\220?\026\317h?}\220\334?\005h\033\277\210\350\034?\212t\200?\2224\222\277x\303\313>\305\215e?\354X\017>\237>\244>\357\000\317\276x$0?\376\367Q?\240b\365>q\016\206>\234uK\277\024\007\007@+UA\277\033\034G>\2172\026?\006\017\343\277\340\253\342=Rqm?\315\366\026\277\374(2?\206\241\017\277\026\222\375\276\377qB\277mp\356\277\207\217\205?\022\205\035?\275\375\306\277\315\365\314\277lX\312=\335w\356>\360\022\222\276\353z\345\276\224\n\267\2776]\241?\306`\340\276xt\'\276m\004\310?\220\007\304?\245u\212\27774?\277MX\305>\347\266^?\226+\303\277\034\320%>\272\201[?\301/\031?X\306\233>\364\324{=W\037\325?\262*\002;\202\355\227\277\376\3222\277\347\326^>T\376\331\276\215Ya>\306\347\235\277OS\270?\205\340$>\265\340\302\276\\\035\372>\274\314\234>2\211f>\321\203\010>|\327B\276\\\343\331>\02045?\371\355\353?\2378K\277\376\304.?Y\001\336?\241\342\367?Ho\264\276N\355F>j\202\265\276\303@V\2770p8\277\n\300\000\275\242\ne>\277\260\357=-q\010\277\356\303=\276\356<\363?>\334i=z\227\277\276\227s\325?\315\372\315\275\255\032\326?\321q\001=\360\312\266=#=2?\013J\234\2776d9\275FZ\320\277\212\263\305\277\37043\277Rz<?r\377@>t\005\324\2778\257\003?\'`L\277N\324\252\277\261\354\336\2777\316\016\2779\353\221?_\226\207\2754\n\360\277\366\210z?\204Q\027?\266\020\201?L\223\223\277\016\314a?\n\022\035?c\203Z\277\303\241\303>\222\313\231\277\360\340\314\274\033\317\311?BF\024\276\267L\031\277\310\350\325>\2403\257\277\006\224\263\277\2547\361\274\032:\312>\372\2170\276o><\277\342\"(>#\374\201\277\357\n\242\277Y\3755\277l\222\022?\273\346C@jh\n@\270\315i=\255\033\205\273\360#\335>\217\0329\277\363\267\210>%~L\277M\257|\277\312L\234?y\361a\276K\256\227>\213l\263>\375-V?x\211f>3\030\342=\235\333\222?\207\234\244?\346\010\350\277\351bQ>\350w\030>\215{\232?\2527\n\276\036Mh?\034\330\325\275\360\332\\?\230!7?-\343\037\277&l\273\277|\370\375\275-9\026?\336\306\364\2766JE>/s\366\276\033\022\346>7\\V?\223\2253\277\343\306\212?L\017\027@1\'\001\277~1\366\276J\303[?\210\365\207=\315\224\020\276[W\020?\345\270\304\277\010\257\307?\023g\211\277\0201l?n\357\203\277\260\221&\277sh\247?\301]\001?\306=\032\277\200k,>\353@\274\276s\214\355\277\002\217\222\277\311\016\217?G\346\\\277U\335$?\340&\035?\016|\032=\266\\}\276nV\"\277\0269\212?\032n\226?l\336R\277aB\216\276%\356\266\276\223\270u?\264\032\217>\206W\274?\326C0\300\357\223\220>%\321\001\300>K}\277\205/\337>\017\010\016\277\002\312\352\277^(1@\t\307\316\277\263D\211\277\"\003\373\275\234\007\352\277\001z\212?<P\036?L{\326?O\227\000@\334\365\202\277\\>\362\276\3242[?\377\306z\277d\277\247\275\256\334\322>R\265\226\275\212;]\276BC0\275\330\253\237>\333\227\210\277\220_\003@\351P6\277\032\027\003?\247\275O\277\333\317\010>\332f\330>O\234\346\277\034\026E<\317\"\025\277sO\317\276\335r/>\354\257\"\277\207\370\216>m\213h\277\237\273\200?W\355s>^\345=\276\215\362\'\277\247\247\242?\257\256X\277\306\337%@?\361;\277\227%\245\2776\261\t>\264j\005?\367\370\357?f\007\342\277\231F\245?\250\261\252\277\232S\003\276\324 _\277\330\331\352>|\266j\276fs\214>4\274K?^\003\303\276\253\360\023\300\205\230\016@*\301\367>\303\350\234\277\230~P\277\362\225\314\276\240\030\275\276\332i\341?^4\247\276\340\226\224?\267\272`\277\036\202\341>\031xV?\210\t\344=W\207\217\276\214\370N\277\206\325\000?\017\3131?\356/\275\275\240.R\276\330\352\001@9\247]\276\270\245\261?c\342\367\274\315\026@\277^W\246\277,|\256\276\320\270\017>R\231\270\277\326\371c>\312 X?9\026\215\277M\371\371\275\257\242\233>\226\201D?ijh>@\263g\277\010\230\030>\242E\365>\241\035\\\277U\333\020?\315\352\222>)\255\240\277\334\207\211\277\231\021o?1\336\245\277\334\246\352\277}\272\t?\010\265\246?iY1>J\347\305?g8\267=\r\255}?\010\347\022\276\257H\241>\266\342C?\373\3213?Ks\002\276\217\371\026\277\030\301\250>?\216\230<\221\037\315?\031J\357\276\025\177X?$\t\227?\022\345\222?Q$\033@\0147\346\277\262\t\321?\315@\203?XK\332\277\016nA\277\336\331R?\325\255\260\277Ff\033>\026\3158?X=\030\277E\221T?\335\350q\276\224\037\353\276W\036\026?iM\353?\010\265\256?\312r\267?\346|\037@O_\317\277\343$\221\277CU\315\276<t\353>\225\266\263>m~:\277\321+\027\277\365F\243?\265\347\203\2776\025\037\276\252V\256\276\221\325(=\t\315\272<\010\321\317\276N\354\251>`\256>>G\367\225\277\354\224g\277\010*\321>\233\032\311\275m\340\210>:\204\202\277\262 c> \260\230\277\241w\324?F\376\207\276\004\224\227\277\273\213]\277+\177\215?\203\313\032\277\213F\022?<S\225\276\304\033\005\276\370V\265\277\021S\026\275\3119\210?\256\036\203\277\001\314\354\277\343@\241?u\276\311\277\032A\237?e\251>\276P\326\304?\004\302\335?f\352R\276\013j!\276\375\r\211\277\366,\n?\333\0363@P\225\276?;\255\214\276V\026!\277H\265\371?~\275\227?V\"\316?B`\312?\243t1>\365)\321?Fs\215>Ns+=\002\2223\276\014\030<\300W\222&\277\016\223\224? \262\022\277\222)\202=7m\'?\005\340\225?\350\312\337\2767+\022\277z:R=\022m\375\276\014$6\277\342\337k\277\263L\242\2774o\320>\344a4\277\262\246\250\277\305#\333\277\325\254\373\275>T\232?\262\211\016\277\336\306\"?i\024\337<\252\003\362\275\007\340\331?]\325\316\277\273\010(>#T\342?\256\026]\276\200\2665\277H\307\002?\017\002\273\277Q\260\215\277<\357*\2770rn?\210\034T=\245\365\223\277\330\265\342<\240\343\323\277^\332P>b*\023?\240\312O\277\"\033\034\275\367xR?\363[\255>\0368\272\276\362\271\002>\033HU\276H\272\220=\304\025\371>\025\304r?\376F\002\277\347\276\201?}\232\300>\n\207\021\275\022h\003@\207\206\327>\251\355\333\277)\324\227\277\257}\232?{\256U\277;\003r=o73?cP\000\300i\317\342\276\251f^\2774\303t\276w\034\201\277\360)\221\277\260\206\271?;|\016\300\017d\030@\2021\026\276h\320#\275E\242\313\276B\303\231>\333\004\235\276\001-\350\276\230\201\213\276US\'?\314\341G?`\002\337?\241\350\245\276CF|?\366\254\243\277H\251U?iB\\=\246\373\003>\r\216\221=@\264\177?\265\274<?\362\235\210\275Q\tr?\253\227@\300]\345\256?\266\341\344\277\341z\022\277\341a\207?T\246\014\277d\233\265\276\255`\213\276H\032\305\275\375\266B\277\355U\363?Sh\020\277IE\324\276\272\355\024\275\374D\026\277\000\264\245?T\201\220?\t\260\327\276)*+\276\352\303]=\336t\254>\007\251\035@ \362\010\300\351{S?\300\350\030\277\224\373\320?b\n\t@e\314\203=\256tw\277L\001\245\276\274\007Y>\256\336\036?\231\305\366?\3065\206=\nk\250>\240@\200\276\250\341\313\2772C\240\277\222\307\002?3d\331\275\226\317\222?\376\363Q>(\215\212\277\356Q2\277aH\020=\351\224n>\263\315\331?\320\300\316\276[x\030\274:\003\327\276\350\t\007\277\212[X=\33231\276\357l\n?\014\352\256?\006R\251\274\370K\200?\'\3012?>\r\253\277m\330\313>^\224E\277\341\301\233\277\371\352\266>u\343\315\277pMw\272\323\005\236=zlV?eU\213?_\224\321?\352\243\204\277\327\240\032\277~\337\n@+W\244\276\352\250\277?s]\233>\025\016>\276\304U\001@\001bE\276Z5\023?\036K\303\274\355eF\276k*:\276\206\342\031\277\365\247\203\276\203$\021\277T\217c\276;>\t?H\320\313\275\270\251\276\276\242\224\216\276n\221\024?\036J\200\277\373e\233\276V\221\243?\302\'\232>\264\004\230\277>\314T?\222\362\223\277\266\372#?\256#\230?/\247\253=\215\212N<\033_=@E\\\214>\025\2624\277\242\331\251\277\251\246\251\276\341\230\220\276Z\367#?\345\363\224\276\335\326\342\277A\tz\277\330\317\212\277q\366\223\277\376\375]?\206T?\300\0244J\277<\260\r\277\331\033\"?\343\372\224\276\2260\'?x\340\033@\277\014\344\276\357\030\006\276\335^M>\334\333\214\277\357\322\253\275\360\035\323\276\030\304I?\274\277\306\275GmW\277p\215\267>\262f-?\314\234\301\274[\027\217>\001\357\003?\234H\313\277\216\342\025\276\007\234=?q\364\014\275\026\366\342\277\321)\300\276\374\257\020\276\037c\214\277\003\210(?\243\333\236>L\234\264?\274\233\263?\352\230y\275\000@\267<\256-\300\277D\363\252;7\252\231\276\177r\252?1\234{\276\215\353C\277\263\\\222?^\017\325?\271\2537@\337\377W\276bk\364?\314F<\300\221\231Z\277\351E\227?;M\026\277))\002\277\031C\224\277\262\332\231>\250K\014?k\026\003\300`p\316=|JW\277\241\321\275\277\200T_\276\2051#\277\\\323\177\276\246\270R\275!\n\256\276Rd\365>|\025\t@cXF\275Zz\n\277{W\003\300\362\nr\277\274\027\007\2771\205\346\277\030+\232>\277\216)\277\n\361\007@\341\226\251\275\310I=?\215\255/?\275\342%?\006|\375>\242\241\033?\252\246[>\204\374\204\277\366\223)\276=#\326? \227\250?Q\246X>J\344\220=p\224\036>RE\014\300\347\354\357\277\254\220O\276)S\241=14S\277\317~9\2773\232\313\2774\313\013@\276\276\222?\227#\253\276\251\306\262?\340d\313?\311\327\201>\214\3034\277\213\3127=\375Lt\275m\226\253?\232\276\006>\272\313\273?\020\330r\277\342~\246\277\342\367\327>\030\001\255\277\230%8\277\352x=\277%\033\020\300\336\222\023\277\203\343\201\276Q\320\351\276\327F\250\277\020\021\311\276@\265\203?\336\247\207\276o\234b\275\014\376\211<\275S\000?\341\023\251\276\362\346P?[B\205>\255\311}?\251}\027\275\264\246R\2772\'\310?tK\332\276\223\214\261>\037\210\203\277\344\331L\277\"=\216?]@9>.\366@\277{\377\272\276\r\3240\276\262\343\240?\"\201o\276\312\256\254>\333V\274\2778A\220\277\001M2?\366\375\310\277`\014\243\277\353\265\213?\236\237\204?\036\240\207?!~o\276z\3737\276|\261a\277\"Z<\277\353)\367\277`\331\'=\246PU\277\035\215\266?|\025\241>\242\232\000\277h\337\213?\306Yf>\266\245\243> \300\210?\273\263\233\277/\271\034?\322\334\202\277x\2053@\2532\351\276#h\001\300^,\223?\361<-\276\021S7?\262<\234=\241X\307\277k\243\251?Y\227\351>\016vK>\004\326a?7\252\226\277}\343\360>\003H)\277\344iT\276\351V\030\277\020\'p<\351\361\243\276\025\374\202\277FE\263\276~\232\250?$\3241\277\375\025\216\277\'1\277>5\037\002\277gRb\276X\203\207\277\242\333d\275\326u\335?Ui\205\277\237>{?\340s\n\277\021\331>?\341q\217>\253\362W?$7\341?\355\245A?\027\206Q?7\344\221\277,\312\236\275\256\211\225?\225\2659\277j,0??~\224\277\201ya\277\3224\032\277E9y\277\211#\273\277\320W\006=[_\253?\347\266F\276\243ka?\341\032\226\277l\350b\277\024\234\276\276\332\035\353?&\337\316\277>\232\006\300\227M\232?\300\300K\277|\207\234?\341Lt?\344\337\304\277{{j\277i\260U?\321Y\000@\265]\r?S\264\253?\303\340{?\013\344\370>+Ra>\211Uo>\242\324M??\247\236\275Ab\021\277fW\340\276\\\004\201\277?\247\364\276\321\243\003\2755b\215=\031:*?\244\033\236\276\312\204\363\276+\373\244?\253\024\235?\003[\201?\355\2421>\331\370\006\277M\032A?c\333\324>\205\350r>\227Y\006\277]\265\005\277\211\022\211?\357&n\277\334\302\356\275%A\310\276\021\255q?\335\t\263\275\254\276\205\275N\001\221>\000\247\313?\352\346\337=\232\245\347?\220\031\273>\233\225??\221\337\330=\353\320\257\277\003_{\276\201\303\215=}\303\033>\022c\246?D\311\241=n\224h?\001\251\263?N\326\325\277\020\362\333\277\266\304o\277`\215\231?t\326\201>\301|\033?\020v\265>\020j\257\277`63?$f\372\275\263E\331>\260\370~\276\242N\340>\374\322\000\277\200\240\203\275\n,}\277\266\266)\277\n\212\337=\255m}>\232\2105\275\036\273\303?E\241\207?\202\232\003\276\207G\227\277b\232f\275\215\251\000\277\265\"\251?\006\313\314>H\332\013\277\033\212\226\277\251\201\241\276S/v\275E,c\277\321\016\010\277\000\333\262?\363k\363=\241F\363;\257\001\224?[\326\303>~uL?5\010\366\277\005\007\263\277\217+\354\276\362o\332\277]\366`\277^J\274\276\215\237\013\277\312*<>q\200\253\275\023;\350?\300k\257?\r\227\224?\216\374\213?Hw\356?+g<?\361\271\360?VJ\t@*\274s>M\300$>W\223\317>\004\374\245\277\364\001/?LQf\277\370S!\277\003\347:\277\206\235\031?\244SF\276*\027:\277j^D?\302\263\302?0\237\\\277\256\362w?\251\364\213?kI\251?\231$x\277B\030\233\277p\354\376\277\216K\014?$\230Y\277\003\336\302>\271<\200?\233\177\226\277O\360`=xR\257\277h:\007?\027~\221?,n9?\340\330/?\276\240\007@{\031>?\277\357\034>\330\314\032\277\303H\264?\337J\317>4,\202\273h[Z\277\200\037\207\277\033\377\006\300\343\'j\276\235\340\307?\2160\206?o<\004\277<\013\201\276\327\226\326?\346=\337?\350\264;\277k\202\364\276\370\352\004\277\\Gm?:\314\221?w4\020\277N\201\275\276\361\311)\277}j\207\27380\\\277\304]\215\277\022\250\035?5\177\203?\246`\305?\2430\207?)\235\253\277\006\265\347>Z\020G\277\002\250\250?\360\231\247?\206=\204?\033\3667\2772\177\355=\026\235\317\275\326\245\246\277\233F\360\276\245:\232\27527u>Z\303\253\277\361\343\002@\211\260\200\277\353\023\007>}\2471>\342\360\302\276\204\007Y?_f\355>\201j\340\276TJ\225\277\325\223\214\277\230\366\222\277\006\025^\277\275\207i?\003\\\307:b\201\300\276\202\364\364?\2358\227\277\252\336\037\276\212\206\244\277\254m\323\276\235\226H\277z|\352>\037\311\007?\313;\340\275\326RE\276S\230J\277\377\024\223\2768\000\273\277\365\"S\277\2551\334>\373\316L\277\304\030>\300\356g\271\277\346\361\373=\271\026\256?\027\340\311>\355\274!\277\344\207\030\277i\236\256?\276\262`\275;\246\177?\313y\326?\262\364\324=\300\324\237\277\244\211\207\277\032\275\327>S\310\201>\233\336\003\277\034\244\245\277urA\277\350\177\343\277\335^z=\307&\201>\274\235\242?\004\274^\277\323\025m\277\232\020\202?e^\213\277\250\021S\277\010\311\221?c}\025\300\002Qy\276#g\274>_s6\277\265m8\276%\260\262\277\266\3773\277U4\t\277\210\352\202\277l7$?\221\\\320>p\317`\277\002\024\207?\205\211\252\277\303m\233?\337\014\023\276\003\230\"\276\222\323\302\277\303\267\014\276^\307m>\364\340\216\276\310\355\025\276\317\000n\277(\003\343\277<\376\001\277\262\006q\277t\370\266\276\217\212U\277=\347\237\276\342\321;>\364\026D?kq\214?\031~\002=3\3043\275\241\322\023\277d)\302?G\222\005@\001N\267>\211\031\231\277\217\314\226?\242n\321?\335ql\276?\346\002>V\032\251>3\342\n?EUc\276\362\215\274\277\017 \247=\320\263\240>c\216\251\277\010n\275?\337\013\000\277\271\334\034:\266\364\024?\213s\025\277\2556w=\200\305\276>\035D\220?\t\'\327\276\301~\245\276]\361\255>\246\355\312?E\343\203\277\013\177\365?\250<\204?S\226\370\276\307\217z\277\323\356~?\332Bz\276\374Zd\276\032\264\303>\263\217=\277@4\200>\206\2525?Q\341\367=\351;h>\364\243\211\277#\303\367?J\001W\277C\023L?%\323\320?S\270\201?.H\004\277\201r\361\276\247\037\335>\3152\354?l\326\216\277x\351V>@\217\005\276\244Fj\275\004\212\000\277\204\030\265\276\370A\212\277h\013\255\276\000\024E?\236`\256>\003/\033?,\261\215>\370\243\307\274\007p\270?>1I\277x3\211\2779\022b\277i\277\253?wR@\300\267\316\343?Z\r\031?p\375\007@V\355\271\277b\343b?2\207\262\277f\227\367?A\240\206\274\033\340\260\277\n\234 \300 +\271>\022\003\271>\217\310\301>Kg\003?\357\204.\277cF\007\300\375e\357\276\325\022\002\276x\330\374>\340>\353\277S\357\020\277\225^/>R,f>\3073E\277!\374\305\276\374\302\233\276T\254\270\277-\007\210\277\350\261S?r\243\027?\002\373\023\300\231h\332>\214\332\312>\321\"\341>+6\343>\352|\320?\003\370\205\277so\251\277\343\030\202?\203O\365\277\217Tj\275\247V\255<17\033?\327C\206\277\003\327&?\257k\267\276N\273\221>\016\310\245\276\254\274u?K\014\025\277$\245\032\277\\H\347\277\230m\026?c\312M\277\024\364J?^\357\270\277@\350\232\277\343~\317\276X\263\361\276g\302X=?\304b?\314k\327\275\252\021[\277\212,~\277\203\205?\277\250\320\272?H\325B?\304\001\217\2778\373\375?j\347\202\276\272_\016\300\367\367H\276\242k=@2\341\241>q;\223?X\3647?\205\267\276=\355bY\274c&\312=\307\223\034\277B\220\205?s\007g?Eb\372?uYw\277@\306\252?!#\035>\001\017\014@~\177v\277\270\345\310>\216\010\031?|\314\025>pZ\251?\302&J?\276\250\037?b;\256\276\201\022\236?\347\027h\277\003\346\361>\350\276\300\276\\\362\022\300\372\321*\277\210r\234\275\302B\240>\031h\321\277J\271\033\276Y\'\r?\207\372\007\277k\350\324\275\362\344\243\277 k\r\277&`\333\276\271j\007@`y\202\277\240\274\226>gU\224>tA\033\277\324A.\277\322H ?\322\354-\27751\204\276\215\035e?0\331\255\277\215\224\023\276\230\341 \277(7\221>CD\201\277\240\310w\277\033\317\007\300@\017\352\277\302O\277?9\177T\275q\375&?\337Q\204\277\357e\362=\000Ll?EA_?\322@B>\273\353\014\300\307\300\257\276B\202\004@\334\243\327\277\004\365\263\274\361\0224\277\222\014\007\277\007K\302\277OI\360\277\206\024[\276\032\261\014\277\352h<?\302\326\025\277s\213@?\013T\003\277w \354>L\257\313?%O\314>\266\335\201\277&i\006>Du\214>\236\321\013\300\033\225f\277\362I\334>\276\0104?\206\020E\277\352c{\277U4\257=\340\262I?\225c\312\276\335\346T?\342\0264?t\231\220\277\326\314\007\277\322\0215>\210\303\236\277|\005A>\361\265\317\277\'\316\222?\305\272\250\277\260\035\270\277s\307\027?\362\224\231\276D\202\r?\365\024\236\274S;\366\276\\o\275?\245zX?\353q\036\277J\233H>\210\226\211>\236\277\216\277\332]\253>h*2\276\371\306@?N=\016\277\337\n<=\233\321}\277\243\366\233\276\226\214\013?\365&\223?z\300.=`\332U?\212N\016?\014\230\206>\320c\213?> \242>\243\337\243\277\212\306\315>{;\204\300\257\300\026?.X\202?\350?\231>\221\250\031\277\257\345\307\276\027\254]>\347\361\013\275^\374\205\274\214\257\315>\004\311\235?\233\324K\276\"\352i>\'\337\300?4\000\230\277\035:\n@\236\313\224\277t\237|\277\245m\212?S\334\007>\226L\325\277I|\026?v\333\000\300\321\344\317\276\340\346\362\276\325\227\216?\374CH?\271\205\275?\362\363{\276\245\372\\?l)m\277\031j^\2777\333R\277\251\251y?\204\354\330?\311\207u\277LB.\300\351B\224\2764\314\334>\233\037\337>\010\372\333\277\317\331\347?\243\361{?\016Z\230?\225\216\256>\244\255.?\375k\350>\375\360\224\276\325\261<\277\3224\343>p\364\217?\375\226\216\277\252\206\205\277\207\260\016\277\377_\237\277\315\234\236?\354>%=\376\334\036?.\205\320\274\314\360\342\276\362\2576?#\260_?n;:?U\210\215\277\341\034\271>\3134f?\374\277\372\277B\376\207?\200\355 ?2\2000\276N\221\366\276\220\303\270\277\272\t\360\276\216\245\020=\367\206\210\276\332|\206?yT\323?\267\345\201\277\373\210\227\277\237\214\247>\007w\352\274\021]\265?\376\032\364=Ft\006\277\267t\343\277\333dB?9\344\224>ZP\201>\336T\331\276\273\363\031>]*[\276\331K\317?!\257\256\276\307\233[\2765\2167\300\257WR\277{\256\320\276\375\373\317=\230Y\026\300\235\213{\277\276\276\323\274\034g\270?\270\222\213?=\031d?\275\237\177?V\355Y\277\350\010\272\277\273C\031\277D\365\034>\252\253R\276p?\236?\354\021\213\273\304\254_\277\350\223\230\275X\3532?\210\204$@\215\356\376=[\233_\277F\347\336\277\177&l\276\231\232>\277F7\020?\017\200\037\300\213\025h\277\303P\231\277\203(\024?\342\265\001\277\315S\'?:E#>ya\224\277\235\307\275?9\255p?\216\243\250\277|\262\347>\"\027\004?\365\207\224\276\002\\\216\277\274c\374\276rl;\277U!\251?\265\007q\276\027c\021?\212\347\354\277\210\300z\277\320\305d?\272\233\301=\355y\204=\236\017\022?t\323\221\276\332t1?\270\243\343\277\207\233\317\275\340\017\014@J\320\241\277\r\230 ?\272\013\210?\332\376\221?\277H[\277\355\225\345\276\234W\264\276\327qb\277\347\205#\277\000\310b\276\036\262\321?\327\345\201\277h\277\370\276\350X\350?E\223C\275!\357\016\277:\324U?\261v(\277\360fW\276T\314\254?N\206E?\202\222\006@/\345\013>\307HN>L\3324\277\220B!?\003\035\200?\313#\220\277\310j\304\277\025\302\266\276\322\351\212\277\3373g\277\032Yf\277\324z\264?\003\313\217?\200*\276\275P#\310\277\202\216\213=\204Ri>\035\253g\277CT\240\277\204@\373\277\317\004v>4\316M\277\310%4>\236}\312\277\3335\235\277Q9\004? 3\207>\334\330\252?Pw@>\033\3163?H\235O\277V\367\237\2766y\005?^\004\250\275\306\242\230>\ti\210\277`\355\030>\274\032a?\r\017M\276\030\014y\276FM\203\277\\\222\025\275YS1\277I(;?nt~>\\\330\246\277/\026\340?\316\004\321>\233\350\214\275\262]T\277#\266\034?\310\326\241?\347p\324>\216\254\025\277B|\312\277_yo\2778\212\347?*\312,\276\210 \036\300_\352\226\276E0\303?\221\372\314\277;s\027@0j\315?\2145\222?\260F\340<\362\336\225\277!\025\300?\004\313P\2773\004\367>\217PG\277\3350\272\276\275\320\372\276\t\371P\277A\254k\277*\213\024?\374\020w?\363\005\024@\212\262\220>u+\363>s\271\023\277:\337t>\231\336\033?I\201\354\276\025*\317\277\005\002_\277/\336f?r\211\212\276)\233\022\275\373@\027?\263c=\277)\332-?\346\023q>rg\032?\340\217\024\277.G\177\277\227#\273?\002\004J\277\310C\253\277\344\006\007?\241\3209\277\313\3765\2778\366\232\276\336\214.?9`\311\277n\207\255\276\010\204\262=nBC?\274C\r\300\005\323\337\276\334En?N\306w\277\207\332\377\276A\326\270\275[\007]\276\245T\217?I\345-\277\266\374\243?S\217~\300R\210\201>\366@d?\333\241y=\262e\036\277P\'\350\275\020\355\345>@t\261\276\223\306\'?|\324O=\203\353\352<g(}<\265\252\000\300\231@\033?\266Jo?\363\371|>^F\325?\006\276\202?K\265d\277\013q!\300D`@?=6G\277x6<?\253\307x?\032d,>mOD?\375x\022\276\326\221\357?\027vD?\007#(\277\223\311\324\277\233\234\227?7\000\322\275\352v\322?yX\246>^\305\315?\016\273\\?\017\337C?\276M\231?~\365\363<\340wm?\220\010\214\277\217:\021?V\0142? \331\214\277\224\311>?\265\212j=\307\301\306?\240r\253?\'p\363;\245l\201\274V\320\364>\261\352f\277\223\235\341>\355\000\242?\315\'\217\277\027\306\207<30N?b\2230?\301\371\200?e\254|>Ly\300\277\270\345 \277\2406F\277dE\345\276\335\253\220?\227\313\254\277?N\224\276l\002^>X\266y<\253\241\264\277\222\324=\276\262\033\335>\371=\211\276\354\330l?\200\305\003@\356\375\237\276\344\262\025?\025\017\n\277\257 n?\273\262\342?iF\210\276\223\357\353?C#\200?\244\303&\2773Be\277\005p\377\277a\255J\275@\003\353\276N\316R>\366o\014>\375=\'>\231\321\r@^\010\022?\275\260\033?\302\002N\277\245\\\320>\352z=\277\306\014\210\277;\036\347\277_\375@<p\241\330\276\024K)?\003R\275\276PA{>\305\234\373>E3\334\277\372\351\213\277w\231\222<\231\364\345\276\3262\246?\322 \263>\314v\"\276\341\241\237?\037\304R?\227m\211\277\237\365\210\277\231\361\247>\221_\225\277y\267\035\277&\320\251?\216\223\004\300N\2521>\006\262\232?\257c&\277\024H\261>Lk\333?\tkC\275M\025\261\276\247\203\234\276\210!\214\277\177\3042>23\337;qL\233\276\301\275\256>\367\271\221\277\366\260\235\277gy\226=3-\017?\302\033\217?\241\376\227?v[,\276!4\267\277\313v\243\276\356\253K\277N\234\013\277\3431\213?\207\"\004>.z\256\277\247D\252?\212\036\377>\253\231\023\277\324D\327?u}\313\276\010)%\277-9\272?G\222\"?\342\270q\277\2670\257\2775\\\252\275/\331U\2776\354\334>\001\303\266>0v\357\277\035^#\277\027\224\237\277o\021\243\277\r\212T>\033\276\210<\030\003a\277M\243\247?{\376\251>\253\207\021\277}b\323\277\212r\010?s\360\370>\301\247)?l\345\360\276\266\345\006@\331\251\213\277n\226\013\300\303e\241\276\307\022\021?\027\234\241?Fu\335=|\004\276?\0139\034\300\377\307~?+|\261\275#%\233?!\201\315\276\371(\037\277\3536\320\275\tcD\277\007m)>\32239?\343<\326?\003\357\265\276\350<\035?\374V5\275w\216\252\275b(\341=\004\366\356\277/2\243;C&9?2>5\276\205\030\336\277\313\325a>\217.\222\277\2047l\276\353\247\033>\201\200\344>\222\257{\277_]\235>1Ls>\035\355\177\276\362\320\035\300\250\214\260\276\205\202L?\305\257d?|t3?\267rp=\262\016\006?I\326\276?\206I\270\276`\335\310\277b\361\211?\034\352\363\276\266W\033?\025\262\016\2775>~?\235\306\205\277\256\264\322\273\016\343R\277\030`<?\371~\233\277\372*\243>\017\361\200?A;\314\275N\252P?Z\236\362\276\362{v?\032\241\\\276Y\307\224\277Rr\255?\220\371\215?j\326\234?\202\251y\275G\2240<\363\271f?xy\374\277\201\034\305=\317\207,>eIX<\263[.=\003K\226=M\255\227\277?\214+>\344\324]\2762Y\260\277\243@>?\265>c\277\253\246\t\300M\274\204\277\253>\256\274\001;{?\304\235\250\277\327m\222=\363\255\004\2773\217+>P\231 \276\206\233A>\230UQ?\364\255\200?\265\272#\277T\357\223\277\\\202^\277\242\356\377?W\332l=\230\231\240?\351\n\022?\330\036\231\276e}:\277\\\365\254?&\310\342\276c<Y?70\016\277\003\225\327=\215\013t?\266]q?\325H\235?0\002\0149\3311-\277\223x\255\277T=t\277\t/#?\366\256 >\362n\024?S\200\344?:\222\277>R\231&?\307\331\017\277\300\003\010?\270H\246?\275tU=\2774!?}\0304\277\325\262\351\277r\nS>~\346\270?5\314A\275\350x]?\377|\246<\355-;?2O\205>\217\\$\276\254KU?\342x\013?)f\242\275\234_C\277\036\323\343\276\204\331\200\277\3368\003?b\036V\277*\233<?\t\366\366\275\030\351\314\274Bk\242?\362Yg\277\037\323\243?\265b\376\276\305\270a>\321\255\206?\233\351\272>\350\"\001\275Td\234\276E\257\350\276U\005\r>\247\245\234\277Z\234\302?\007\034&?[\013\256\276\342\020\342?\270\226T\277W\037\005\277\026\342\206?\336\211\025?\204\310\020@`18?\021\366\033?\036\322p>\"\313\372<}\005\030?\2741\020?\272\003E?\365\307\236>>\231m\277R\3168?7\326\244?\001\272\364\276\210\361\250?=\311<?\316T\215\277]l!?\202\303\200?\307f\033?K\276\227\276\227R\256\277\376FV<\007\250\r?\024\277\262?s\213\n\277\243n \276\370\232R?\034\305W\276LU\201\275%\004J>[\221\177\277\307]\306\276B\276l\276p\rr\276\224R\300?\376C\211\277&\273\226?\374?L?6\374\272>TK/\2772\251g?\312\227\354\2754N\002@\277\345\255?z\337;\277_\224h\277 \375\214>h\320F\277R\021\252?\342\243\017\300o\226X?\337j\312\277\266\226o\277\344\014B?\356\362\270\276Z/%\2764\263\226\277x\3048\276\001\"\327\277.\334\201\276\026\025\300?\307\265\234>-0\250\276\371\376\217\276\250!=\277\265k\234=]\r\007\276\271\352]\277\323H\277>MO\227?\246\002\252\276I\327\222>v\0034\300\2452\233>r\242\023\276\214\226\313\276_\224\377=t6)\277\351\332S\277{O\312\277Am\242?;\031\200?\332\347\233\276\220\242^<\274\"T>\236\027\201=\261l\360>\266\226$?\213\373X\277\t\231\301?\203\356C\277\241_\206\277\374\266v\277\022\031O\2776\353E\277\nc2\300\2700\r?\231;`>\305\220y>\202X\212?\3440\030>\312\210\000\300I:\335\277\336P\333>W\261\r\277//\001?\356\226\177?\326\217q?\347K\202\2763[\217=\337\224\233\277\261Vg?\005 ,\277~C\220?\020Tv?pQ\336\2773\213\311\277)}L\277\024\021\216?\322\036\220\277++f\277\276\300R?b\263\211\277\2407T\277.K\242\277\247\267\'\277co\010>\276n\007\300\017e\'\277}J\t\300\227\370!?\3409\213\277g\224\362\277\267o`\276l8\264\277\014\323\346=IJE\277%\216\223\277\206\331\266\277\367\342\340\275\026e\324\277\304\271\'=\323u\265\277A^\230\276S\0276\277\362G\302\276inR?\316\207\253?/\212f>\221{\035@e\037\214>\354!\013\300D\210\332\27709\243?\021\206%>\201\355a\277.\006\354\276\262\255<\277\345Z\003>\357\r\271=\030\277e?j_\216\277\256\262\226?&\217\002\300\244G*\277\373\214v\2771L1?\374R\366?\236lm\275\026C\033=t\356\223>\335r\340>\304\254\032\277\014\341\013\300!\233\001?4\223\266>\302\253:\276\005\362\227?\255\203m>\207&\325?-0w\277_ss\277\271f\212>\371+\003\300g&\245\277&56?\340\367\203\2770\242{\276\274G\334\276F\321\237\277\304\321S?\245Er?\233\267\333\275)=\270?QN\320?\223E\324\276\014\224B\277\220\177\262\277E\304\357?\250\304\341\277\230\266U:\200\242w\277\200(\031\277^:2\277\036\203\037?\220\315\024?\265&\000\300\214iY?;iO\277@\365\036\276f\352E\277\006\034u?\337\220g\276\204v\202\277k\334h?\033\026\025\277\320\314~\277\365\004\255>T\2115\277\230h\274?\351\251\374\276\344S>\277k\213T>`w\201?[\243\362\277d&\302\277\315)\275\277\r\\V\275zDq?9\356\334\277\3770>>F/\245?Re\267?\254\230B?\327\350\036\27740\264\2774\314\257\276\325\007\245>wn\215?6\2512?\027\013H?%(\331>Z\207\375\276\301[(\274\313\307\010=\254\263\000?\242\255\224>l\030\032\277&>\234\277\372sb=}\213\'\277\315\324\303>[^\357\276\004>\317>-\372\240?\232S\370\275\265\261\211\277\246\202Z\276tP1<\361?J?\264\246$\277\0379\035?\021\252\303>\337}?\275e\211\017\300\006\0162\277\360\313\006?J\251!@\213K=>\256p4>\037\221\266?\242F\322?|)[=\314r\365\277`\223>\276\274\034\372\276\334\036\377=\255\207%?\031\006c?\007`\264=\337\235w\277f\337\351\277\260\030\334\277\211\365\225\276T\343\374\277\304k\315\276\320\025E\277QI\276?\252\002\211?\372\311\237?\372\017\210?\266q\275>\230\261\216\277\366\303\222\277P+[\277\235\313\007\300\276\357\302\277\032>\221>\3254\273\277@\355\261>B$\005?\005\317\013?\350\363\331;\231C,\277\303\005\031@CN\212?K\035\327:v\367\232?T\024\351?S\375W\275[\212L\276\\B\211\277\217\262O\277X\2541\277\005c\341\276\242V\337\276\377\216,?\245?\276?\363*\267<\217\270\375\276\275s\324\276c\365\242?OmU\277\025\371\262\276\250\007\326?@;\212\277\207>\314?d\243\365\276\201%b\276a{\266\277!Q~?\333\227\262?\243\253\251\277\327\366\213\277\371\350#?:SY\277\302\004v\277\240\213\037@\227\226\271\276\2259h?v)\213>\003\305\206\277\245-\310\277\2045\010\277\210C\335\274E\3722\276\343\364\246<\263G3>\224\334\343\277\035\223\246>\364\327\006?\363V\256\276\315/\275\277\262\200H?&\273\233?\032!`\277K,\005\274\330\301\356? \243\202>\023\010\347?\311\024T>*\010\\\277\322v\305>TC#?\323\006=?\2755==\316d\213\277\365\310\257\2774P\235?\266\3525?\217\021\013?\023\234\226=b#\303?\271\224\241?\375\232\005\274\330\235\222\277H\211\224\276\365\257S\277W\373\277<\010D\214>\262yl?Oz\017?v\246\224\277\374\351\275=J\212c\277\337\236\202\277\271E\364\276*\t[?\202\n\366\275\000=}\276\332\267\026\277(\254\315\277\327\204\004@\001u\006\277\003ce>\304\216\212\275H\026E?r\312$?82\261?\321U\344?\263\251\371;\367\033\253>\350}\234\275\323`\254?\254\203\302\277\266\304\210\275\371\353\204\276\277.\247?\211\036\205?\3355\202>\030\376=?\232+5@\364\221\267?\352\260\032\277\rs)\277\217\365P?\255CP\276\375GI?\247\301\247?\034rs\276\032\350\202\277\346r\231;(l\312\276\r\257K\277w\232\224>cn\255\277\'\344\252?\001\n\373\277Jw\307?\354V3\277>,\227>9z}\277,\006\213\275\332=5\276.>m\277\205\274|>n\270>\277E\236\227\276\025\275q\276)\251\252=Z\331\231?\211\255\212\275\371@W?n\220\233?\323\275\033\275\222\237/\2772(K\275\220;>\277@\210\314>\205\177\341?^\271|\276\313\327\202>\031\312 \277\233T\307>\'\263\212?\030\234\035\273\312\354V?C\2238?}\340+\277SX\022@\223\353!\277m\231\336>TPB\277#\362\262?0Z\241\277\364\217\255\276\302 \236?b\t\217\277\301v\177\277\004\271\254\276:\370*\277sB\020\277e\207b\277\'\306\237\2765\316\200\275oP\263?\013\321,?W\227\205?\001\246k>\023\202\203\276t\274\007\277nQ\207?\366\221S?\213X\270\276s\252&\275|Mv\276\010\265\307\277\253\200\005> \024I>\377\311\016?\327MR\277\213\020\250=\353B\311>\'V\"?\306\031\264\276\365U\306\276\371+\275?}\005\315\277\223\350\237\276\366\'\263\2773\374\245?\370\221\203?T=\204>\3600\274>\234\032\017?E\337\312?\263eY\276\366S\240\277.\r\033?j\355\351\277[\252\233\2761\232\300?\255JQ\276\241i.>\253?\306\276\322\202\353\277\203\017\227={1\226?\340\002\336=\"\t\243?(\360\250\277\026\312u?\317\256S\277\020\020+?\245:\205=pR\213?\312\367X\277PW&\277l:\036?\255\262\240\276{\240\255\277*\317\221?\035\277\001\276\346\000\247>;g\254\277\223?\216>=\013\211\276\212p\275\277\347*W>\203@\017\277\316\2646\300q\200\236\277\220\236\251\277\257\205\365>@g\363\276M\350\272=Vc\247\277M\2064\274\225?*>\240\321\331>\356\224\245?\221\356b?\267\340\201\276\300\322\007?\303\361>\277a\355\\?\nI\024\276O\025u\276\010\244\t\277\266\255\005@{\340\206>\206\235\027\277\354b\302=\205\235\306?d\310@\277js\324\276\346\034D\277\261\266\267?\351\361D\277\243\236V\277\001\025\023?\366S3\277Y2\333>1\346\021\2765S\365\277+\276\027>C\242,?\211\020[\276V{\245>\245\371q\276\267xf\276\005J\006?_?N\277\222\210\027\277\202\335W>\252\357\232>:\277\230>g]e\276\0275\366>\321:\033?wc|\277\257\031\224\277\2149\234?k\021;?\344\3147?P\311\007?\325\334Z>\315\333\016?v,_\27779\026\2777\213\323\277/K\361\274\003\252A?\324/\"@\351\350\354>:4I\276Z\340\203\276q\256 \277\337\212\225\277A?\006\277Y@\036?\352\202\337?\241L\262?\303\360W\276\257\321\007?\346nt\277+,\036;.gw\277\373\300N?y\020\216\277\346\r\372\276/T\226\275)\231\317>\3001\355\275-x2?\321\216r?@\355\t>\326\300\371\2764\340l\277X\030[\276\317\004\316\277,\350\t\277\001\324\236?\372_I?\031*\203>l\367U>Q,\224\276ut\321?\252\324\312?\\\213\024@o\240\243>\236\021\254?]^n\277\304\315Q?v\365\226?\233\264/?\213h{>\303X\205\277\350\033\347?\251|\210?\355M\010?\255F\327\277\230T@?\316\344\245?\202\275d\2775$\343\277\2021\227\277\033\017\225>jKR\276*\035\211?\373\254w\277m\306#\276\027\300\004\300\207\375\335?\002G\302\276\246\0177?\033\300S?.\342\304\277\321`7?\233i\337>vCf\277N\336\253>\'\227\301\277E|\210\277\270\3611\275\334#?\277\270tg?\002T\301\275@\276\203?\262J\270\276\375\r\362=3\232Y?\216.\264?\"\374->\347\347\307\276_\213Z\277\241\257c\300^Z\274>\233\263)?L\376\336\276D\336\002\276\265%\362\277\230\304\\?n\0377?\361[_\277\236l\223=?\317\'\3006\027\010?Q\372m\277\334>#?\214n\267?e(\215>~]e?zXL?\300G2?<\330.?\313b\262\277I\255\360?\202\003\177\277\t,\234?k\200/?\177\313\211>@\260`\277-\013\233\276\235z\215>O\363t\277\313\010\363?\202\267\255?\327\240\211\277\023Ti?\002\005\221\276\314\277\211\277\250p\324>\373j6\276`\300\267=\226v\240\277\312\037\237\277yR\004\300\240\264\257?n \205\277\003\020\'\277\273\225\343\277_\362\205?\314\303\351\276x\307\016\300Om\240\275\354\266\331?OxQ>\236$\201\277\232\215l>\315<$>\254\177$?,bU?j$\254?t:\247?79\347>L#\210\277y(0\277fu\010\276\306\316\305?EjA\277\017\220!?\253\375\371\276\004D\013\276j\243,\277(\274F?\257\035\344=1\010\030\300\233\223#\277\344<\232?.A\251=\231\313*?\275\356\372>\262\260\365>\336(\316>pL\024\276\t\010\356>|k\253\276\016S\247?{\231\010?\000\366>\277~$\210\276\373\277\332?\262!I\277\346\230\232=\340\024p?QD\242\277m\250\242=\263\350\261\277W\202\307\276\325\3204\277(\001\001\276{p\235\277\256\247\312\277\237Z\246?\036\346\223?\244\240\001\276\214\312*\277\231\324q</\203\242?\245T\342\277\375\216\221>\335\222\243\277\361\3310=~=\217\277W\300\230\277{Su?\342\202Z\277\'9\351\276Wh>?\341\370\025\277&\241D\2774\025:\276\367R\361?\241]\213?\035\350B\276lB9?)p\212\277x\251\004\277tX\0049\2731C?\002\277\001\300RRY\277?\005[\276j\303\362?\346kY?\344*\266?\353\321*?\246\226?\276\364\274\347\277m\357\266\277\362\263\251\276@\210g\276Z\005\005\300\277\177\224>\005q\223\277kH\'?s\000\215\274%\"\335=\306b\n\277:M\250>\034\360\337\2776\302W\277\240\312B\277^\372\244=\373t\270?<\341\371>\241\332\233\277\003hJ>WJ\330>\327\304\033\300;!\377?\034\333\367\276Z\"8\276C\324\277>Z:R>\253d>\276\321\224\373?M\270\313\275_\206\314\276.\323\345\277z\244\221=qn\331\276\216\314\230\276\202\364p\276\014T\007\277&m\226\277x[X\277Fnj\276u}\237>\216 ~\276\301\242\003@\200\215\221\276Dq\362>-\200\207\277\256\'7?o#\342?\221\355(\277.\356\204?4D,?\367]\247\276\237\263\016\277\243\021\016@\230\200\365\277\263\221\220>\355\t\333?\307\350\322>\341\267A?\2351\310\277\355\021w>?Zr?\270B\253=\3478\366\2750+\216?\177\254\322\277\222\210\244?Q_\232\277\305\345\240\277jF\261\277[,\212>\346\262X\277wi\001?\306\245|?\237\212\352>\233\221\276=\376\243\346>z\360\001\276\336B\020?\245\000\346\276\270+\300?\204\032\246\277\371\010\244\277\236\221\003\277\233\212\031\300e\336$\277\3111~\277\332\315n\277\343\300\326\275\\`g?\027\013\266\277V\250\315=o\031\010\300L\253\243\2764\215\276\277}\003B\277\317\0279?\023\317\304\2772I\025?-\371\373>\267\274P\277\262\266\033\277\010(\037\277\2503\273\277GS)\274F\201w\277\023\312\267\277\222\353\317?R\002\217\277\020\021J>Ta\324?x\216\230\277\275Y\365\276\225\265\227?\346\327\257?\373$\352\276\360j\306>\021E\213\277xv\037\277X\347\265\277\352\006\212\275\224h\033\276o\215\021\276!\311S\276`\000i?\237\331\217=\007T\023@\357\214\220?\030\373u\277\337\"5?\237\037\251?R\214\230\277\231Qx\276!\0147?\347\006\346?\342\336\365\276ojA@\201Z\023>X\336\004=-\005\217>\370e\323?\246\014\316\276\335\226d=S\021}\277\337\247%?\205Z\276>q\3761\277\352\001N\275\357\034\252>op\374>?\nQ?@\344\250?\323M\230?\226\304\001\300?\363\r\277A\004\227\2773|\302?\214\024\225\277\262c\224\277\327|\255>\351P\221?\356\2223\277d\032\332\275\215i\220\277\215\022\206\277\221S\334>m\330k\276\254[\250\277\242\000\001\277\0054^>z\257P?BG\'\277\366\316\246\277\203\022\347\2778\242\250=\200\013\031\277\317\017\205\277iO\347=\221\340\361\275\2573R\277\026}\257?\304\031]\277\241f0\277_\236\323\277p$>>\r\361\006?\327\366\351?gj\235\2756\206]\277\346\221,>\324\244$\274\201:\254\277\255y\201?\004;\360=\216\032\362>OKT?\342\r\375\276\212\310\357\275i\363\351\277\377!\262?\232\331\253?\224$y?sJ\340?\207\273\305>\302w\344\277\235\203\217\277\250\360\323?\361[R\277\313\020\337>t\024\340\277,\240\246=t6u?\311\361\333\277\013fJ\277\342`\224?\na\243>\035]\271?U\212\201?\336\rE\276\033,\327\276\333\334F?\350\356??\252\002\t\277\305\006\221\277\"\007\016@\212^Z\277b\317\035?Bd\315?\340A\307>\013\326\370\276\356l\'?\214\276i?[\256\317>\344C\347>\267\210\367\2769-\317?\343\353\261>\270\301\220\275rxi<\346\330b\277OE\261\277\340\372\257>\355\302\235\277Y\365\244?\312\0371@X\226\246\276\331\362\t?\225B\323>\370\000??\262h\323?j\r\n>\035\261F??\303\037\275\307m\362\2771\351z?\2218q\277\253\324\030\276\366\204\215?\222\r\206?!\243\231\276w\224U?Y\221\327?\350*\000?UI\277=\202\177F>\213\nM?\357:\222=%\010W?\307\373\016\277\2416\261>+\251\360\277\232\235|>g|Z>\357$\260?\366\353\021?B]\000@`Ku?g\356\210\277\234\311\002@]H\257\277\226]e?\217\257\270>\355\177G?`\027\267\277\230\261R?\237\366,?\n\212\207>\026b\200\277\301\317\002\275#\366\330?\214\315\241>quL\277\273\237\270\276\321\267\307\277\351\366\236?\317\304*\3008R\364=\205\327\026?\207n_\277\372Nf>\252\025N\277\370\216\350\277y\221\272?\374\356\022\277>\227\n?\337u4\275o\221\326\276g\247\202?\257\266q?\334\277\374\277f1\273>\177\351\020\2778Q\243>\234s\032>Wa\206\277\325\303\305>\330\216\333?\276\3649\277X\371\252>\216\033\007@\014\216\227\276M\013\032\277\246\362?\277\\\342\257\277E\276\215\274%\215F=+\2042?\214\205\213\276\364\317T?0V.\276.~i\277g\026L>r\265\247\275\016\372:>\025\212\303\277\317a8>I\213\206?T\377\205?\222\335\307?1\312\312?\343\276\000>\266\223\221>_F\262\276\0057J\277L\r\327?;0\003>\305/\013?\032\276\310\277\":D\274\200\342\337>\212\261\322\277jrJ?\346\260\202\274\214{)\277\376\335\224?A\013\000=\330\212\314\276\021\347x=\257q\t\277p\355\227?GA<\275\350p\354\276\220*\036\300\263\225\325?N+w\276\274\343\377?\312\337Q?\321P\244?UO\224>\301}\204\275,\343r\2777\023\326?\3154\246\275T\023)>\300\373m?l\322\250?\2509\350>1cY\276R~\247\276\370\203\022?\r,\250?\3767,\277\201i\r?[&g\300\242\244L\2765f\317\276\014\210\306\277\2159\260\276R(7\277r\211/\276\314\315X\277\233\321\023\300\321k\270\276S*\036?\3457\023\276\364k\214>\323j\251?u\352\033\275\300u\266\277V\265\202=\334+z\277\314b\347?\177\250\221\277lcF?\003\020Q?r\331\204?\316\303\034\300\200\230\214\277\001bH\277\024Z<\276U#]\277\230x\231?fg\323\275=\224\274\277L\247\366>\275\031\351>\304bb?\245\251<\275\260`x\276\225\356L\276\027\037\241\277n\314\375> \232\324\277\002\206H\277\204\010\325\277-?\000?\371\336+\277\023^\027\276\223\016\214?\t{\264>\313f\232\277S\003\255\2765\315-?\216{\206\277e%\327>ARP\277C\307b>\257\306\027@\266\340\311\276[l\215\2779\274\017\277j\000\257\277e\236\335>y\264\222\276\312\333 \277\305Z\205?\344}\247>\021@\215\277b=\010>\315\343\251>\377\207\262\277F\017u?\022\231I\277\205\262o\276\007\260\364\277\307\212\241?\273\'%\276v\026\240?\357\200%\277k\343:\277\232\2219?\330\332\330\277\023\3404\277\337\326t\277Or\250?I\347\371<\315\262\"\277+\316\366\277\303L\323\277\221e\340?/=\210?\002;\350\275\rY\247?\220\343\357\275\203q\217?\353b\361\277:\205\205?\267\361\003@\n\013\033\277\211i\312>!\373\\>\225_\"\277\333\327\212\277\307\246\312\276\215\333\212>\254\314\207\277\027>f?\377/\014?p<\247\277@\031A?!}y\276,\223R?\340\213\233?\277v\220>\353\224\263?\3618\336\276\337\257i\276\224\360]\277~^\240\277\315\274\357?\233\014\177\277\223d\225?T\000\t@,\374\020?N\220\022\277\025>\002\277p\320}\2773\334{\277.\205~\276 \031\231\276Y\304\007\276\010UG\276\031v\034\276b\300X?\'\306V\277vA0\277\362\202\001?\347\223\343\277\003g\'?D\262\213?n\356|\277K\253S>\277\203\225\277\276\236\342?\255G\222\275\211\232\244\276\002\207\255\276\341\244\261\276\016\316\327\277\374L\263\277\354\362\006\300\303E\017?(\032\027?\277\"J\300In\337\277\315\334Q\277\013v\305\275\355\225\006\300\2719\006\277(\225\211\277\030\344\311?s\346\363\276\031{\226\277\224\005\302\277\274\344\213\276x\207\357\277\257_\246\276{\265\203\277Z\306\n>\377\020,\277\311\361\264?\324\254\330\276\314K-\276\276\036[\277\364\356W?\262\014`<I\211\023?\3562\233\276g0~>\001\306\232\277&@\016\276\267\034\305?\321\203\327\276V{\023\276\244YJ\277J4\306\276\003\303\034>og\302\276\302\007\000\300\224N\336\277!\237Z\276\255\207\020\276\303\000\327\277\346MO>6\352\016?\213b\307\276\304/\302\276\217Dz\276\225t\363\276\375~\017?\251\356\210?\246Bh?b\326\021\277\200h\032?\010\220 \276\304\250\200\275\235]\t\276\204\305\353\277\311\307\023?@W\346\277 \252\346?\234\324\205?Y\231L\277\345\314\031?\3562\225\276\332\237\214\277\r\rN?\372\245\375\276\232\337X\277b\022\240>N;]\276iA\327\277\242\213\210?2\305\254?Wq\243>~\351\205\276\257\351\205=\003\273\245\277A\0014\276^}\025@\n\031r\276\325AQ\277\033\276n?\034\342\367>YO/>\211C\252\276\265:]>\026\371~\277\255\337w\277H\344\014\277\371\013\005?\204\314\022\277b\263\003\300\322\326\364\276\331R\334\277\365v\351>\251Na?G\330V\277)\217}>e\232|\277\376\361\312>+2\'\277up\242>\226\036!\277\374\205P\277l\331\376\2773.\374=4\342\266\277\361!\315?\356\303\213\276#\267H?\243\323\300\277\177y&@\200\231\250=\212\273\"\277\232\271\342>\202/4\277\030]\305?\343\315\003\277\261\317}\277\272\010\303?\221\244\r\277\257sD\275\231\177;\277pW\336?g,\325\277cm$=\007Lq>w\200V\277\374\207\207>k`\214?v\276\361?|\270\313>[#\003\277@\205M\277\371\032\201\277\330f\276\277\356\r\026?+\014N\277\312\235\352>\013._\275[f\301<\016\033F\277\215S!?A\2612\277\036A\354\276\301%\217?\331X\205\276\347\371\303?\237\246\302>\225S\004?\004A\224\2772\250\006?\245\204 \277\275\255\231\276\230\356%?\020\264\260?\231\200\013\277\266,\007\300Z\240\017>\035\0210\276\365e\023\276\010O\261=\177\332\230\277i\356\270\276\201\236\324\276@W\371>\265( \276\303\275N?\226\372\016\277\233\343\205\276(5\362>\322KU?Q\310N?\234t\363\277\320{\222\275\2035\274\276\256][\276\023C\220?\332\271 ?q\273=\277\225C\272?\265\257\267\277\354U\205>\355\313&?\311O??\\-\326\277\007\324\275\277s\313\256?\330d\n\277\317\361\013\277\243\214\027\300?\245 >zP\221?\357\363\000\277\027+2<\222\223\376=\310\333\330>\342\311k\277\216\232\031?7\234\225\276\000\'-\277[\215\231?_7\026\2761\264[\275\004\200\200\277? \356?\272\351\024\276\203W\205\277_\277\254\277\215k\211\275\027UW=\373\007\023>>\270\211?\216\331,?\035\220\305\277\036\364K?1\273\347?C#-\277\235\037==/\311\221>1\002S\274\333\017\301?\201\345\000@=\t\230>Z\272\260>\377\220\320?\223\275\213\276\030\353\201?G\023\213?\216\340~\276kx\034=\216\351Y\277J)\\>7=Y=\374\003\032?QY,?\272\'\032?\214(\260?\033\216\352>2\251\373\277\345\024\313?mMO?\334\345\234\277\366^\213\276\025\216\'?\364\016\001?\302\266\204=(\217\317\277\310\022\210>\240e]?P\003\244?ij\321?\277Y\207\277a\027z?\356\376o\277\370\312\216?\rTe\277\325\022\357?\355\267\275\276\3755\233?\254\014\320=\204\310\232?\213S\267\277`j:?\021\372\322>_\'\205>F\263\220?`\216\321>\211\261\026>\243\221\002\277\212\247\303>\025%<\276.\244\231?\007\004\206?\362\342\211?\036\247\352?\2745B?fa\030\300\221p\027?\324\264\307?\324\200\025?<\377\205?<\317v\276\227\205K\277\313\006\323?\361\030\366\276\004\235\237?\2279;\300\357\346\013?\000\334\034\277\003\255\024?\257\r\222?W\037\240?L\035S\277z\266\261\277\250H\363>\370%\251\277\316Bg\277\370\350\251?>\255\261\276R\261\005\276D=\306\276\317\204\370\276X\025>?\214>\032\300?Z\037\300\034z\376>\253\372\257\276\t\035w?\022\302\324\277\366\306\214\275\326Y}\2766 \265\277\241\272\234\277\270W\300?\300\201#\277\224\260I?p\234\352=FF\334?\311G;>\2346\024\300\350I\346>[>\r\277\265`\340\275\007~N\277\'\221\325\277\007\231>\276\000\245 ?\241#\314?\224]\304>\220L\214?n\322R\277\274q8?\233\216\323\277L\227{\277\204\251\034?\237\303\212>v{\336?:?%\277P\014\200?\214-\000\277\271\377\364\276\265]\006\277\374\227\205>\262\345\322\276^j\247?_\273\214\2758^\245>\356\361\343\277\264\200\212\277j+\264\274\341\316 \277\034\021\206\277\316\264\243>&q:?\330\266H\276M\361-\276\001\006M?\340\327\373=]\344\006\300\365_\250>\002\243\207\277n\004Q\2765\035J>.Ri\277\230\250\313>\005\325X=$\337\221=\024\336\t\277\201v\032=\305/\376\277\340/A\277M\236h?\236m\336\277\031\004d>\241r^\277V\316b\276\217\0053=\255\230\275=\251m\310\276}_\251\276\243\275\332?b\211\001?\031\377\237?\236{B=N\003\216\277\027\350\223\277T7&\2775;\244\277\351\273\025\276zZ\370>P[\201\275\334E\214>q\332\230?\250F\032\277\373\325&\277\245\236\357?\017\366\265\277\234\342\255=\2407\345\275\367p\313=L\356\\?K\277\223\276r\273{>-6\316\2777\355\277\277{2\367>\310k\322?\303P\224?\224\030\"\277\177\014,\277\032\300\360?\250~\312\276\024\375\334\275\004\244\325?\346\274\355>3?\031@#\314n>\341\214\247\275\246\263\324\277<\026\266?\333\226\375>b\367\275=\204\270g\277}\356->\3116\324>\376\236\332\276\227\214s\277\346\2224?|\335\234\277\034\253\270\276\305\010\344>\204\3112\277\231\224\207?\236\230\214\276\305r\020\274\314\210b?\324\352\327\275\225\010\261\277\024]x=\224\226\342\276\351\372\233\275r\2476\277*\347\235>Z\373^?xb\344\277\322\341\257?\221\027W>\251\355\302\275\267\262\025?k\217\220\276=m\231>\245\243\332?\311u\241?\252\371\264\276\'?\376>\340\241\010?\256Q\221\2771c6\275\324)\357\276\025m\200\276\034\002.>\221@\220\276\006\371*\277&\032\222\276\2662\213?\236\000\242?\303[\241>\200\344\343\274Q\341\203\277\333g\221\277\274\372\300?\362@\236?a\002\245\277\316\020\367=[\315\271\275A\2344?e\275#?\271\2507\277(>9\276\362\221\240?\001BK?\361\007\020?PI\t\277\314\031??G-\037\277\345[\241\277:\325\207?M\t\232>(\237(?\352\010\337\277V\233\363?\360>\255\276\345y\243=zs\321=]\231\262\277\036[\216\277\027\316n?\016e\316>.i\243\277\024\231\037?\213^\224\275 \004\005?+)\311?[\212\232\277\031-(\2775\205\205\277:q\213>x\0211\276A\016\225?\265\243T\277`\373\272\277\264\356e?\345t\200?\034\335\222\275\231{\255?\372\024\303\276\006\'\237\277\373\222n?\376 g\277\347\203\300?\t\251v=\375)\002?\212\215\006\276[#\327\276\201\204\336=F\303\246\277\313W\277>[\374a\2775\261\221\277\027\345\244\275\033g\302\277+\016\313\276/;\220>\t\371<?\325`\373\275\274\373Z?=\315\027\276\212\350!\277|t\210\277\243i\370\276\302D\003\276\377\246\206?\347\330!?sa\201\277x\344\023\273t@\304\277\250\256\231>s`\032\277\200P&@\367\207\244?%\207t\277\300o\244?}\352r\277D\3546?C=A?l\247\017\277\367{\333\276\312\022\222\277\303\027\214>7+\200?\231\025\377\2766*\t?\327a\377\277\334\212\262?\030\036\331\276\005\240\355?[\024\207\277.R\261?\347/\226\275\310o\257=\264\324\250\276\311\350\240\277\360^\272\276\005\'\262=\021\310\233\277\355\311\215\277\372\227S=\326>d?\000s\274=\017\225\347?\345\353\263\276+\206\027>\\\305>\276\374\341\277?\323\352\r\2775\017\224>\333\023\026\275i\201z=b\216p\277{\212A=\245b\220\277\005Ks\275M+\003?\253\030b\276tn\332\275\032\355\324\276\034A\177?\256\376\233?et\274\273\243\231\246>\000e1\277\024d\222?\2226\360\276\226Yu\277\202\231\212=>\325\375\276\204\3663\277\372z\336?q\254\263\277*\262j?\254\313\203>\016\347\230>\333\277\215?\312Y\233?\332\253\037\276\350\335\203?\2625\377\275\007\004\273\277%\214M\276\252\327]?\332X\007\276\337\361\353>\302q\253>\201\360\240>\256tV?zH\300>U\352\036@N)\301\276\237\205\241?\333\234\225?\004J\006\300\205m\211?G\017;\276z\221\275=\351$\001?\031\376\216>\301\363\220\275\344\003\266<\327\306L?_\345\321\276\023,\301?+\0359\2763J;>\024\307\266\277A\237\233\275`_\234>l\352<\277\303Tn?B$\217\277o\204\022@\217u\371\276\240\n\031\277gg\345\276\360X>\277=\000\014\277n\212\252>\243P,\277\365\230\347\274\2563\023\276KK\210\277\005\333\t\300\277\021\023\277\306\231o\277\244\224_?\241\255\310>\361\212\026\277\305\035\023?]\3310\277\177\216\035\277\031\314\214?\256\367\222=P\264_?\240[\370\276@\256\204\277A\'\220\277T\375\211\276\365\372\034\276\027n\313=~D\340?\352\205\217>Vw\243>\002K\217\276\035 \226\277\242\214&?\007\306\314\277W\021X>X\347\220\276\347\202I?*\307\311\277\360\253\212?\310\"\267>f\004V?\022pD\277g\211\207?\312\277\035\276R\350\022?\352)\010\275\022\212n\277f\230\234\277\241\204\210\277r]R\277\333\242\177\276XI\313\276s\215\327\2775\314\207\277q\317\220\277\273\374\357\275\202\361\242\276\246\031\023?tQ\003\277\226\226\227\276s\351\241\276\314i\324\275\261\304\302?2.\245\277\003\035\272\276\241\263\227?&\354\237\277h\245\362\274n\216D\277\225\227\337?\210\t\212>\365\203\003\277\230\213q\277e\321;\276\253\207G?\354\035\370>\263\016\222\277\265\001\210\2775\340b\274\373\236\"?\022\014\204>t{\272?\312\241\231\277\025\227q=\330@l\277\2203\214=\367\010o?[V\275\274\237\223\253\2761\0342\277\177z\277?\257\360\343\276\351\363\n\276\261\211\353\276X\376\001\300\202\2077\277,\344\001@J\235T>\274Z\355>\007\320\316?\220\310\272\275\332\225\"?\263\242<?\203\020\245?eP\245>\362\334\256?>\342\001\300\017\264h>\211\320\220\275\2429K\300Ju\314?\345\214x\276f\"V?\350\003\223?\374{=?\301Is?\252\304\230?.\030\312;\340\216\030\276\275\376\034\277\032B\340\276\004\224\354=\271\240\302?\021\027\235\276\325s,\277\243[\243\277\303\367\321\276\337\214\203\276\344\314y\276\353D\n?\\\352\230\277A*\264\277\030,E>\363\332\255\276\013,\264>\340\327\264\276}\003\225\275\022\0266\277VHy?B<\216\276\353\016w?5\343\031?\320\201]\277e\353\254=\227\360\206\277\343\t\017?\211\230\266\276\317\374\014?\260/\252\2778m\004\277\202\345\377\276\376\215E?\322d\252>\245\255\225\2765\253\364?\234f\340\276\0032*\276\241\305\n\277\'A->\203\214\006?7F\263<\327g\256?\340\353\330=IB\304>\tO)\277n\007\247\277(\026\320>\314\002\311>\247\220\000\276\255\214\341\276\321#\204\277\026\305\317?\366\343Q\277\033\265\333?\270\2201\277\250\3677?\r\314[\277T\212\241?\210\314\272>\245\246\274\277\237\023b>\365\025\250\276\303\300\036\277U&c?\255^\031\277\226\233\343?\304\204\037\274koD?\370\333\307?\347\330)?\306So?\323\373\317>\252\337\306?\262o\027@\200\273}?\202;C?\315\'\341?\216oQ?\362\213\"\276\345\264\341\276\242F\350??\262W>s\254\013\300\362\026|?{\354\030?J\016\330?i\351\321\276|\351c?\2605\303?\030K;\300\240\216\010\300]\'\210?L\010d\277\313\217\005@\024\212Z>\256\374\363?\224\257\034\277\367\220\210<J\201\310\277\322xL\276\213Z\266>\242\314^>\346R\223?\244\355\017\274G)\355\276{d\241?\341\244\027\300\022=n\276\305\030\241\277\004&:?\265\002\216?\275(\007@eM\237=\343\232\317\277zX\334>\326\374\272\277i\363\217>\205N\t?\213\0362?\254\216\331\276\354\362\363\275OD\022\277$h\257\276l0\266\277\337Nu?\263\303\211?P\325\004\276\243\035\025\277\360]!=\217m\232\277D,\277?\231\213\334?\032TE\277\225\365\020?:sV\277\030\211;\277$,\225?`\320\007@\033y\205\276<E\214?\363\244\035@\227\305+?\222\351\221=\251\237\224\277\002\316\321>\320\225&\276\327\257\216?\024j\242\276\003\"S\277\202\247\252>\224\033\344\277i\306\213=_w\253\277e\350\\\277o,\264\276j\303\367\277I)\207?\234j\262\275\022\246\236?\365\370\373>\346`#\277\211`\232=&\n\234?\326\226\341?\360MM?\302]\247=v\036\234?\322M\245\277_\217\022\300\341\310\005?\364\244\255\276\223\240m?#Y\024\277.\024\210\277g=#@#\250X?\023\372\252=702\277\317~\324=\352\332(?\"\344J?\036\222!\277P\232\006\277\001<\204?\311\253\307\276mVs\277\323\3330?X\304\210?\257B\236\277\205\002\001\277u8\360\277\234\242\330\276\225\t\260\277\256I4\277~\207\202?\356-\014\300\221\222$>\225gB?\230\223\354\276\214\020$\277U\352D>\016\276\257\277L\036\325?dJ\321\275\246\261\276<\321e\251\277,?+\2776\307g\276\256\010\021\2767\324l\277\240\232\333\275\370\243\005@\360\361\267?.\376X?\351\024[?j[3?\000\366\331\277\021S\344?\300T+@\031\034\035\300\264\225\264?0\271\276\277\004\367\347?\3130K?8\250\277\276\266\253\233\277\232\215\311?\363\232\252?DW\354\277\236[\005\300\n\260\007@,\316\275?\277\336\326\275\250\273\224>\003R:=b\234\255\277P\3314?\"N\023? \276\t\300N\003\003\277\210\305\257\274/\267\211?\256#\202\275\300<\301>\212\r\244\277Q\356L\277\005mj\277G\177\205>\362\243P?\227lS?\304-\002\277\325+H\275\016BC\277e\372\036@\344\306\277\277\351,\020@O\251n\276^\334<\277\334\335\317>H\307\032?0\231\275\276\210J\221?\016\337\266>\227\022\317>8n{\276\336\230a>ao#?o\006\326\276\330Ud\277\272I\203\276\007\254\276>J\212\235?\000Y\032\276e\344\257?L\n\023\2771\201y\277Ro\376=\000L\232?\260\313\352>\335}n\277\356\237\007@\027AB?*\360\251\277\234\004\256\277\244Sx?+\346;>\207c\220\277|UI\277\034!\242\277\326\310\351?V\326\213\276\203\t\207?\364\264\354>\200\357\370?\306\234\205?\025\312\'>\rrj\277Fj\375<\361P\310?=\213\031?\010\261\r\277\026\242\"\277\t\034\237>\363\233\245>y\237\013=&\357\236?\243\334\r>l=\215>\242A\302\277\255\240\366?\002!U?I\034S\275\374\210\344\276\352]\350>/\026\326\277m\225\307?\202Zl\276\240(8\277\327\033\225>\335\225k\275C\021\277\277\333\004h\277un\271<\360\004S\277?T\017?3\3453=\257Hw\276\251\313\006>\r\330!\277B\021\224?\351\346n\276.\n\014?\236CG\277\247l;\277C\0052@\016\200\213?\236\374\013@\032\321\014\300\221\343-\277\030\354\025@\354,\313>\306\276\000\300\t\250\177\274{\017\243?\366&U\276ik\215\277z\023\227?)\214\322\275\325\236#\277\204\265\347?\344\334\016?S\036\256\276\342\236\222\277\333M\213\277\324:\237\276\232\211\327?\261\345\317\277F\374\262\277\013\365\223?\373\n\016\277\375\351\313>\206\274\033>E\214\211\276\337\277H\277\035\321w\275\306\004\233?4^\022\277GO\341\277\035\353\275\276:\264\016?\032\274\001\277$\271\302=sg\007\277/%X\277\223CJ?\"\364\250?n\276H\277\345+\227\276\324\253\256?L/E?M>\264?\362\264\253?\216\352\017?vJ\016?\036\023H?\317\001?\276\212\254\245?>\262\233\276j\211\237:\2413\211?\023\003`\2769$o\277\317\235^?\217\346\037\300F\336\326>\200rj\277?j\305>\225(4\277\036\354U\277+\004\317>\334\276N>\304\t\027\274\361\026}?\006\205\302\277\260^\344\277\242l\354\277c\003\303\277\240\345\205>w\264\257?3\326\204?rQY>\341\2607\277\317\271\010\276\344\006g\277\020]\350\277\006\256J\277\256\352\034?\206\330\017\276|\201\335\276\337\0374\300\377\301\310>\2271\025\277\240\034C?\233\211\001\300M\365\275=<\214\232?\230\007\313\277\256-P?N\\\214\277\035\371\243?\277\216\220?\271\354 ?\3566Z\277\372\2365?C\342\352\277\177\202\346=$V\365>\361/\274?i\014)?5.\255=\005\343\203?U\036\034\277\030\033T?\275>%>\216\275\260?|\022\350?\216I)>c\327N\277\231x\375<\200P\003@+AK\277%6\306\274<\215\244\277!\0275?i$ \272\237\024\373?\006\266\263?d\000\006?U\304\222?N5\304=\007\356A>\204y`\277\244\020\006?\263*\244\275\223S\376?.6\313\277\261e\307>\330G/\277\224\\\311\277\024n9\275C\204\245\277\215\323\025@\020O\000?\322\337\232\277#\233B?\333\310a?\251\204L?o\314^>\305\233\363\276\302\036\271\277fJ\023\273q\277l\277<\365w\277\367M\250\277m\313U?4Us?\177\017\254>\231\023\355\277u^\215<\020V\270>k\224\023\277\270\334\'>a9\227?\352\324\027?5\016\215\277\211l\311<\250\017\005\276]o\264\277\203\270\213?M\232\215?p\026`?\177\016k\276n\231\214?E\205(\277\\on\277\324\275\237\277[.\210?\300\025\336\276\214\303\035?\221\006\377>jt\322?4\364\247>\305\232\257>f\345<>~\010\033?\376\002&\277\347\374\302\276\316\275Y\277\214\255\264>S\260\246\277\226\265\353\276\r\254\310\277\303\034r\276\177\'\245?\207K]?\025\002\240=\366\303\264\277\336\362e?\0254\335\275qj\200\2779)A?\322n\233\277r\"\315\277-\246\024?\236\3003\276I\346\204\2770\204\360=d\215\321?n\212o>;^\010?\255\352X?#\241.\277\177\236\003\277\262\312\201\2772\242\253?\340_\252>\273Y\255>\203\257L>\232\363\200\277\262o_?v\227\206\277\213\021\212>p\242\177\276D\364\224=\311\3423>\r\252<?[^s>X\212\211\277\223$\007\277M\220\014>\246\003\037\277\367\0325\276\310\202\253?\377\213(?\234\323\241\274Qa\204?\272C\206\277\202\373\036?$\244M\277\364`\272\276\227\003\t?\246}\207\277\036\334\204\277\014\205\227\276M\236P\277\342\376\017@\341X\013>\243r\304\277\037\024\231\275\362bA?\t\344\021\3002\251\263>\320\241+?h\027\217?5\013\275??\031N\277HA\245\277\014b\014@\304\354\272>\007\227\346>\335\357\020?\024\330\347>\020\337U\275\005\246\314\277\311\002\207\275=\245^?\347%\317\277\205sc\277!\375n\277&\215F\2771\312\017\277\023M\266\277J\210\022\3008\r\210?\264\250\371\276\314\307$?\365\2719@\3346\010?\207\031\036\277\233\027\355=\326.\277\277\261\240o\277\2601\357>\313>X\277\321@\366\277\272\323\177\2755\242\301\276>\231N\277Z\025\260\277\010\362:>\251\212\212\275\226\334\215\276T\023\254\277\010\367\020\300\241N^?@\252\267>D\036\030\277\265\320\026\277\300\225\'@2O\027\275\347\034\250\2732\'\216=\225\241\250\277\265\236\233?\324y\n?p\240F?\200\342W=*3T>\361\374\350\277\364\344\230\277\370\336K\277\256\302\251\276\260\242\231?,\250\212\277@\372\210?\333\374\206\277\375\323\023?Q\002\034\277~\261\274>tz\317>\341@\033\276\220\232L\277\313\313\376>wP\016?\2652\034?\301\315\226\275\211\325\006\300r\t\332>X%\363\275\030`\207>2O\212>\2573\246\277\327\034\230>\032.\263>\317\357\236\277\3104G>\021\036u\277B,\350?=\246\341\275\351\215\220?<\262\006\277\210\231D\276P\356\032\277\204R\232\277\351g]\277*\244\220?\364F\315?0.\235\274\037\360C?8(\374>e\271\333>\0160\211?\356A\224?\235\233W?\"\222\026?\365\350T?2\023\010\300\232\363\006\2772b,?\262Q\376\276\214)\277>\302\353\262\276\341\006\002\277\275\326\010@\346\316\237>\021\271\240?\256I\277\277L\026W\277\372oD\277\313n\220\277B\021L\277ag\254?\021qR\275\363h\263\277\321\342\255?\023\364\t\276\200G\206\277\372\335\201?\272)>?(PO?ev\246\277l\246\022?\252\352\257?k~t>\304\222\200\275B\023:\276/6.\276{g\211\277\353\233\004\277\301\257\374\274\226\222\303?Q\263a>[,\374>7\025>\277\320F\214\277\365W\227\276\004\357\004?\224\306\230\276\303\"\336\276\227e\004\277=\r\221?w3\243\277\352\200Y>\214\0039\277,\356\367?5\004D\277\201>\035@\351\252\216>\021\234\321=-C\031?\017s\205?\363\264\361\276\376\305\237?8_-\2766a\263\2768\270\236\277\365\370\250\277\364\301\307>\217\241\207\277\n\027\206\276J~h\277qA\t?1Y\331\276\250\207\304>,%-\277\343\337\213\277\010\223\266>\207`\037\277\227\023\372>sb\247?\014\221\233?\201Vb\277\270\016\316\275x\272\r?\017.S?\305\270\220\277s\030h\2776\307\035?\235)\357>:\270}?\\\336`=\014v\333?\017\345\032@&\261\247\277|\225x\276y\n\033\300\274A#\276h^\234\277\237\301\001\300\375\364\242=\231\272{?\362\363n\277t>\227\277\024]%?\262kV\277\276!\000\300\303\216\232\277\312\343\251?1\230\225?\024\213\372\277q\2120?5\250\267>|a4?H\207\254\277\334\263\016\300\313][\277Q\004\231\277\310\252\221\277\247\257\025@m\246\343\277\346NM?\3551\277?:\324\007\277a\310\006\276\323\3271\277\231%\024?\304\370\272\276\332!\310>\257<\223\276\365\224\256>\325WH>`\312\334?\336C:?\321\275#?-\320\242\277\035\035\223\276\321\367\273\276\344\274U?\246]\344>\250\035\025?\301\235\202?9\\h>{m\246?op\276>\306D)\277\251\237\221\277\345\013v>\177\022x\276\301\235\371\275GD/@ 2n\277^\341D\276\351\302)\277\010\005\021\277\203\016^\276c\277\257\277\313\323<\277L\321\256\277\352\310M\277\316\177\342\277\003\3402?~\271\344>\032\002D\277\020\273d\277\277\004\215\277\0161\271>\334\'\002?\036\377\215?\275\rw\275a\334\230?e\333\025?}\033\020@\020Y\217\277\032X\237\277\014s\332>\357\3664\277\037\332\003=\231\347}?\006\017G\277S{\245\277\345<Z@\206B\275\2778e\025?\240j\314\277m\242\370?:S\034>M\375\352>\327\036\271\277_\205\354\2763\"\333>\'\305S\277\233)+?%J\244?R\006(\277}`$?\261!\003\276\371\327~?\335wq?d8\314\277\322\311s\277t\314\022@Y\202]?\350\337<\277\3030!\300\206\'!??\310\036>\304\002\335>\306)\203>\361\223\n?\275\2311?\344\313\314>\375\314%@\1774\201\277\301HV>n\225@=\200\372\">\340\377\r\300\251\224O\277\374\371;\277\034F\227\277\240\376\353\276g-\033\277\034bd\2772g{\277jL\342\277h\331\345>X\306\027?1\266\317\275V\332\254\276\n\344\316\276\317\325T>7A\324\274\205\273-?\205\351\201=\204O\200\277\245\352\362>\262\362\010?`\323\216\277\322V@?\'s\311\275\356\360\020\277r1\237?\017\220e?\002\276\005\300\327\034\001?\340\t\003@\t\235_?ar\177>d)1\276\224\217\213?A\317\367\276}\332n\277\273\314\\?\341;x\277ow\303?\275\227\000=\326\362|\277\373L\024\277B}\017@\0304\177?{\251h\277\255n\254\277/\240\211?\306\275 ?Y;\223><\203\350>\260\255J\275.\250\205?\3232\325=\\B\007\277d\342\203?\024\270\247\275\224\273\222>\331b\023?J\034`\277\350\346\032\275Z\351\220>3z\262\277\206\2305\276\262C\326?\362A%?\177\343\376\277m&\016\300\027\324j?\305H\262?l\0317?\223\243\243=\330u\262\276\036\246\030>\357\256\026=\025\300\344\275\"/U=D\375\351\276\037\270\237\277\352)\361>u{\371>\037\034\005?En\016\275\030\2651\277\240\363\272\2745\245\313\276;\003f<\235\214\234>\037\200\016?\313\177\017\300\177\211l\2776*\215\277\213a9\277\212UJ\276\211\250\024\274A\020\035\277\215:\360\276\316\304\221\277z<\320?\000M\272\277\025qC>\245\300\230\277\247\210\233\277\313c\351\276\303\314l> \321e\277[\350+?\324D|?\030\346\261\277#\251\311?\370\372\002>\313S\201>\351\000\025?\246;\020@\232\231\237\276\324\276\316>.\004#\277\277\221)\277\376\343\212?\361I\206\276\321\373\204?-\200\313?\352\024\245\277\220El?\r\005f?.|n\277X\344!\277\372:\324\277E\305\001?\010\255\206?\244]\232?\345s \277yz\227?\250\361!\277\0308\202?\334\366\252;\304\206\t>\2604%@\020\345\325\276\000\237\">\316]\037?\375S\022\277\030\320\205\276\202D\261?\034\276C?n\205l?\236\321\237?i\016\300>\350\245\211\277I5\004?\275\\r?\370cp?\257\316\254?5\365\277?\256\312\027\275\324~\213\276\312\234\236\276\200\026\024\300\221&\254\277\223\322&\276\354\252\266?\rh\201?\376~q>A\341\351\277\253\275G?\347\027\245\275\215\371\n\277O\212V?oc\210\277\343q^\276@\266i?z,\375\276\373md?r\254\310=\311\315&\277\343\032\n\276\310\340\276\277\343\341\316?\213,\352\276\017\340v\275\264:\321>\360\346\343<\324Li\277\334\322\265?j6i\277\236\306\014?\177\256#\276F\251\353\277n\t\304?\275\232\000?\220\237\240>\243\r.\277\351K\225?\237\237\206\277\213\345\234=\005G\231\277W\232\257\277\2551\311\277\324\025\265>\302<\006\300\035\251\277\273\rr\314\277)\321\336>\326\006\260\274^\356\212?u\017\020>\232\tW\274\2334{\276*\014\271\277B\355\333;V\227\t>\356w\\\276\371\240\343?\301Y\317>\322\322\205\277\325\357\257\276\r\270\223?\342K\306\277C\222j\276\367\025\263\276}\3510@S\321R?\252_\364\277vkW?\004\366\003?\372\231K\277\321a\204>!\216\212?[\2524?\275?\'?\242\361\237\277\200\343a\277f\'\216?\343\276[\277\220\\Q\277r~]\275\230\365H\276\343J\243?\366x\223\277\220\205h\277\227\024\243\276]d\275?,\320J\276a\235h\277\361\203\216\275\302\373\327>\355\210\021\276fL\211\277YO\001?\300\237\224>\336\221\305\276\264\354\007\277U\033O\277\246\310u\277q\033\302?\217Ny>\237+<\277\231f\277>?~\013\300\002\367Y:l\342?\277d\340.?\236P\026\277\307\243w>\260\345#\277\001;{\276\177j\220>\'\221\274>\201h\366?\343kD\277V\331|\277sM\346?\237|\020?\223\303o\277\303\205\023\277G\337\252\277\323\307H?Y\325\311?\230\036W?U\250\310\275\321\224\276\277S\226\333>\343\031\256\277\351\037\322>\371\355,?]>H\276\016i\264?\341\317\000\277\301\205\271?\371y\244>\345K\324\276\346\267;?\200\324\'\277\036I\001\300:\267\221\277\\\366\215\277\241\311\201={\002\210>n\222c?\370t\210\277\306\017\217\275Ru\254?\332H\210?%\210\210\276\335\3600?\357T\212\275\211\344\270\275\000\377\370>\241x\007\277Aw3\277\213Zy\277\023F\003\300e;\313\277\360x\322\276\267*\365\276\367iy?\334\2363\276\020 \327?iRU?v\225\316\276\233\023\341>M\256\355\277\025\313!\2778\'v?|\017\361\276\232\207X>\375\366X?\222M=\277\230q\366\277,%\232\275\301t\312\276\036b\225\277nI.>Q~\010\300\tDb\276\263\246c>\263\236\240\277\246\217G\277\273\\\266\277\347\376\234\276\026Y\225>\232\330\205\276Q\352!\276\257\356\031?\333\307\267?H2\236?\362\201\231?\206)\'?\203\342\212?!\022E\277\277Z\235\277\341\013[\277g\316e?\010\273\236\277\364B\210\277~\017R?\363(\323>}\375o>\246\236\276\277\254\266\244?zU\253?G 2?\273\202\337?O\277p\275\215\353[\277\023E\204?\204\377\216\277\366j\201\277\361m\315?E$\237>ach\277>\007\250\277\035\357\206=\032\013I\277\033\n|\277\352\021\206\276\031\341\240?\350\331P\276\363\335\036\277J\303c\277\037H\217>\0028\025?1\321\237?\365\231d\277\330\"\025\277\342_\326\277P\265v\277\\\225:\277G\365\214\277\363pg\277E\274a\2776\336\267\277(\216\301<\221\306\226?\245\224\324?6\036\025\277L\345\365?\010\327\231>\201\323)\277\177[\022\300/p\221?\005\227M?h\013\243\276\254{I?\031\006\n\300H\303\326>\300\2636>\240\363\'?\3419\025\277\241f\272\277\317U\002\300:\254\005@\t\227\'\277\\\275\002@X7\000?\217(y?\255\276K?\223\3307\277\361R\n?\007\233\367=<Fo\277L\253\314?\021\311V?D\307\273\276\210\242[\277\266{J\2777b\364>\005\374\026\277\220\253\277\276\223%\305\276\376\304\321\277\035\333\246\277\353>\000@\031\263\312\276\266\210\220?\371\212b\277\203aC\300\266L,>\211\374\005\277\312G\350=\231\225\233\276{q ?\307\350p\277\271?\357>\325hF?\253\027\361?\266I\255?o/\222<T\310\310\275\216\361\305>\212\345\276<\214L\260\277\334\212y>\276\021\210?M\204V?\024\276\016?S\200\260>\0349)?\033\346o\277\361g#\277\260\"\333?j\027\246\277\263?\222>*\273\311?Za@\277\260l\211>M\010\n>UUG?\200!\207>\225\214 ?LL\024\3000\344\200>&\335\262?\367\215\241\277\310\200\237>2\317\234?\353\255\203?\300\335\204>\003\r/?A\254\025\300.\361\200\276\350C\351=\215\231l\277F\223\255\277\250uy\277\213\237\327?\243yX?uM->\361\2326?|\350\323=\236\025\375\2755\033\013>\266\022,>\332x\002?H\356\356\275g\\Z@ \304\317>\275Q\312=Qf\343\276\216\322{\276\273\357\223>\273-\302=\242X\n\300N\246\331>Z\336\033?\005\215\317>\315\3363>B\347\233\277\306\305 \277B0\024\276j\207\314?r\364A\276\316\345\364\273\272s \2771p|>\261|\246\277\200\342\201?\244\272\"\275\200\020\361\277\362\255\211\276H\305\177\277\364ri?\244X\243?}\\&@\351\250\013>v\320\217?^P\323\277l\335\223?\305\322z\277\031\361\027?\365/7?\315~\322\276+\0361?\360\024\204?\007\004\005\277\306I\023\277\312\005@\277\354\254E\277\322\006\376\276\252\365\247=w-@\277\\\014\211\277\327*~?Q\272\276?-(G\277\315\322\206?ZK\201?\033_\245\277^\001\221>]\t!?Ss\262?\326\302\r\277s\034\324?\272\216\007\277\022A\237\276\203I\265>\370\354\273=o\301=\277}\036\320\276\264\234\304\276\002\267\205>;}Q\277\037\026G>\207\222\\\277\207\370\204\276\2224\216?V#G\277Y=\365\277\\M[>u\360\254?\271\310^\276\217-\276?\"b\005\277\257L\000\277\337\006\201?\337\230l? \376m\277\334\213\301\276\273\311:?\376+\203=\334$\307?\347\276n?\264\007\221? h\006\277o!\317?\376U=\276\361\275\303?2\306\016\277\032\304J=\216a!\300\016)B?\362\251~\275J\232\033?p~\261?%\316\014\277\"|d>\207iG\277\252|\370\274\3231;?\245u=\277a\372\233\276\377\257\335?h^\277\276\271\367\"?\317\n\"\276*[F\277\275\373\204\277\301Pl\277\313n\265\276\002\037\245>\t\206*?\327<\030\300\3564\335?\216\\>\277\3208D\300\373!\\\277K\342\007\277\256\331\376\276\307Q\235?_O\207\276\006\336r?9\256\226\277hY\035?\372Q\357\276\n\373\"?E{\r\275K\203\377>\003\352\177>\325\260\252\277\307\205\200?\257\223N\277\023\004\007>5-5=$\370\230\276Z\246\201?\016\337\304\277\267\377\250\276\000#\351?:G\266=\222\322\316\276^\261P\277%\330\313>^\304\374\274\027\2641\277\350\216\201\277\326\334N\277B\024\003\275t\303U?\303\372\031\276\216\333\262\276\337\227\376\277\016\243<>u\373\024\277 \315\214=qz\317\276\205\376\034?\216\330\223>\027\'\260\277\255\2677>\266\347F\277{\374\332\276\241|\033?\000\262\306>\034\350\320>8\004\005\300\264Tb?\356$\222?\3154K?M\021M?\347\t\371?\277<\276>\220\001\343\276 \324\242\277\261\233v?\345\345\236\276\203\241\010\277\261\223\245?,\275\261\277y\376\030>\003%@\277\2665\005?\321\r\366\275\220u\246?\344\253\362>\214b:\276\320]\224\277\275\223\306\277.b\010\300U\305\351>\264I\206?\305\364\016\276W\356L>?\200\332>\273\027U;\254\332*?oc\205\277\236\316\357>\371\364\030\277\337\364\315\277\0178z?\217q\333\274\013b\006\277\303\321\362>\206\321\255>\353@\251\276$\205\352\277\315\262A?ho\305\277^]\212?CZ\201\277|\\G\277\307\321\330>Z\335\360\2779u>\277\t\306\352?L\037\226\275\214\210\200\277\246\370d?\222\207N>\023\nm?\267\204O\275\211\340\357<Vn*\276^PX\277z\006b>\301\322g?\222O\014>\357g\231<\211\350\205\277\337\326\266=\315z\004@fB\272\276\370\370\033?\257\237\344\277\340\333\276\275\201\371\317\276B \214\277\323Y3?\r\236Z\276\025v\341>m\226\325\277\351\371N\276\275+\333<\331\213\003\277\301x\273>H\"\202>\207\254\200\274\261f\r\277\336\346\033\277\274\235\227\275\213\2067\277\010\271\026\277\343\320\362?\320\\\226?@k\277\276C(^\2773\344;@\213\316\247\277\262z\276>\010b\235\272Oq3\2771\022\244\277M\327\023\277\357\236\r?\"F\330>+\236U\274\037\013\010@7\3646\277\320RK\276r\221\350\276\217\177\026\277KUW\277\260\031\213>\206\241\304?t.\301\277\034s\216?\214\355\273>\302}4>\'\235\034\274\366\375\024\277&\313\264?\003\030\\\277d\242\345\277\n\206\265\276\000k\003\277\3752\006\300\206\\\262\277=Z0?tL\020\276\341TA?\260\211\025?j\034\373\277\306\006\242\275 \'\207\276\326\217\304?\"\3049?\026\303#\276j\235\210\276\230\331\337?\300-\255?\365\377\245\276\300\034\370\276<\177Z>\221O\024?4\222\223\276\206\3575\277\324\200\352>\302Y\212\2761\271\014?wG\036?\037\375\221\277\340#T\277\261.\354\276\321\351\274\275F9\323>h!\350\277\024\"\232\276P\367\017\277\253\';\277*\001\266\277\315a\241?H\014O?\371\000\211>\367d\211?\356\033K\277\3674\014\277\244\321\357>\315u\217\277r\016q?p\357V?gmL\277\264\002\216\277=D\323=\337\006-\277hEk>\366\305\254\277R\371\335?\251\027 @\213\277%\276\371jJ\300\266\002\211\275\322\303\352>W\324I\276L\037\345\277\236\2217>\030\3456\300Z&V?\251\204\367\277\330\200\356>\177A2?u\223\307?\311\003\305?\223b\317?\331v<\277\230\231E\275d\354\016@\342,\032\277j(\236\275\356\2651@\233\005\234\277\212\n\022=y<\235\277\227\272\252?{\223!\277\376\347~\277.\267f\277%\206\371?\210\341\026\277\250\221t\277E\022\255>\327]C9\355C\324?\007\356\277\277%\031\210\274\21762?\3445\202?\321\212$?\352\036A?u\274??\370\257\350>\026Dx\277\"5\334?o*\232<\300\206\r\277\257\235\177\277\t\334T?F\240\t?-\t\013@\263\017\202\276\024k\356>Q\031\205\276\216\262.\276\212\203\242?2u\'@\240\037\237\275\361\224\310?E<\367\277\016\303\201?g\351\366=\235\256\333?\320|r\277\241t\302\277\301\334\r\300-\324\270?_\033\300>!\340\021\277\217R\213\277\267\225\217\277\212\322\021\277\365\332\337>\210\002\304\274\246\2209\277\220\326\257?u\307\263?g2\237\276Aeb\277\254w\233?l_\235\277\237\337\273\277bd\275\277\252\031\205\2772\353\316\275\243=!\277\222a\214?\210Er?\\l\203\277f\243f?\212\216\224?\233\277\243\275\335\032\221\276\322\034\254>\276\363I\276\366\370^\277\222\005\265\277\264\")\276y\004\205?{TQ?\366l\252\277\336~\256\276!@\216?VF\215\277\336\304\245?\025\370\"\276,\375\343\277\347\207\004?k\300\023\300\370hI?\243\211\321?\345\177\324\277:b\267?\017\351\352\275\016\023[\275\336Y\210?\245\006\243?\335\343(?\351N\t@\255=N>\222^\t\275\207\006\224\277|\301\236\276H\213\315\277\234k\353\277\251\333\010=\362\245}\276\005\r\206=e\031\"?TT\255>\377\265\217=\002rl?\225>\030?+to?\245\352T\277\000\0338\277\233u\233?\004#\236>\203\315\203\2772 \352>n\002\306>\"k0\277$]\301\277\326E\267\275\325_\232\277\227@\004@b\033\317>\024|W>\271\344\233<\030\353\234\276h\201&\277\'\025\037\300\233\031\250>\242\330c?K\3226?u\351\236>\014\352V\277\272\356\216>H\221T?\013\265\254\276\023i\232\276\304e\335?\201Ha>\267\263\307>\256\237\035\277x\330s?P\223_\277E+\014?\343\267\235?\256\201\356\276\206\311\025?\202*\305>\261\016\203?\212\366`\276\315\273\353\277*\331\215?\206\007\224\2770\220\017?\215Jq\277\231P\227\276Pc\206\276\036J@\276@D\342\276\313#\222?W+\214\277\270\2316\300\014,U?\257\256\255>\025\357y\276\266\177\375?LG\224\277R\032\302>Q\366X>o\030\006@\350\214<?\027\363\210?\370\210!@I\364#>\374\231\014\276\026\004\204\277\002\177\305?\213a^>\301\222|\275\024m\320\275\223\263\277>k5\244>\375\212z\276k\3479=\211f\330\276\343DE?`\036\343?\317\303\037>\376\220q=\010\030\305\274\245\374\023\277\325\265x?\371\217\t\300\323\261\310\276\346\220\203\277\300u\202\277\252\237 \277uI\244?\274{\252\276\233\263|=\231\233\203?&X\264\274\020\335\226\276\004\244\254>b\324\212\277u\364N>\211\016\000?\214a\331>\302\317==\256\270\311\276\277\023\020\277\331\023\276\276GU\203\276\2678)?\030\215\247\277\1774V\276A\'\267\277\204v\t?\232R9\277\337\336\243?\004\347>?/G\236?\365~\262\276\302\014\221\276\331\032\025\274V\315\220?\301_,\276\221\2136?]\325\361?\204%\277>\334\361\010\300HX\013\276\353\234=\277\177E\264\274[\001\313\275\350\240`\277\261\373-\277\033\023\200\273\264\231W?\027\362 @\225\257\370>\277\272S?\363\337\332?\332\264\254?\306\026\221?\255y\306=\'\203\215\276_\340\236?\027\224\223?\357\217\253?+\033\250?V\016\262<\352\307\177>4\256\246<\003\256\302>\227\321\372>\352\316b\277)\005\260\277p\342\332\277\034\363\240?\245\202\212?l\364\306\275\021\317B?W\364\004?\'\365\236\276\016x\367\276q\265\302\277\367#\350>U\250h\277;S\215\275(\331\253?\243\216d\277\256\301\256>\277C\333<\264$\332\276\347\245\t?\250\303\201?]=T\275r\023\224>H\242\033\277\023\217\207?\005\272\354>\365\275\035@\213\235\210?\240\361\347\276\326S\360>i\347d?7\276\272>\222\263\013>\026\211\n\275\251\013I\277\'3\320\277\230s\307\277\002\261\030@\036\272\330\276\322t\205\277\345W\254?\257\313\343?c\276\310\276[\r\224?\nsH?\177m\261\275\016CF\275\017\336\016?8\027o\277b\216\333>_9\333?\303}\275>\354\177|\275\272\261\212\276%\342c\276\211\236\307\276;\236\014\276e\213\224\276\376\270\344?-\247A?92u?\350N\007>\206\333\327\276g#s?\206j\227?\2361\357>$)\226\277\332\361`\276K\224{\277b\254\241\277\365lA?\376\264t?H\243\221?\330\023B?\343v\247\275{f\301\277\203\003\021?p\206\255>R\220\201?<\313?\277\325\026\316\277\237\350\320\2770\347\371\276\350\201A?\036q%\275\033\304\303\277q`\255?\272\306\261\276\333\255\253\275jhL\277\326y\033\277\333\325\237\277\227\266\375>J\332\200\277VC\304>j_\227\275\213\261\214\276\024K\270\277\220.\276\275\251\275\323\276\203\026\242\276u\216o?\020\314\255\276\235T\024?\3711 \277\212d\321?\321a\r\277e\037\267?\367\207\207\276z\021\013?C\025a?\020\001\027?F\367\"\277i\n\311>\225\357h\277\264B\351\277\225\244\003@s\347\207\277\027\210\036?\345\207\264\277\346\252\216?\331S\212?_\347\022\300\274\341\340\2769z\233\2777_-?I\024\222\277\037\016t\277U\366k>\300\305O\276\024\0035\277f\361o?\375\241\276\276\355J\037\277\312\265\315\277\025\310\237\277\273z\005\300\2706\223\276[\371\214?\311\267^\277\207.^?M\237\360>\347\341\250\2778<\267?\312\275j?\376\014\204?\027\314_?\244\327\003\277\227\353!\277\006\220\211?\313\224\270\277\252\266\363>\272d\203?\270/X\277\204\006\305\276\353\2424\276\350Z\233\276q+#@\311\305\307?R}\226\277\342\022\325\276c@\255\276\312\375a?\222\216\356\276\201e\307\276\373\034\305\276]\001\213>6CS\276\021\325-\277\374S=?A.f\277w_m?\216p9?s\2670?\307\032\307\275g#\231\277R\035\336\277\300\005\221\276\247\306\214?\253}\371\277\017i\315?+\356\226?u\235\017?\201\227\021\276GE\326<\000z\257=\264\206\017?\350{\016\277;\305+?M^\354?\255\224\313?\210\3704?\227^%\277!A\256\276\370>d\276\251\311V\277&\r\255\276\005\345\200\276\027\213\320?\206\275\032\276W\0323\276O\247\206\276\026k\205>0JS?5\226\200\276\035\325I\277\021&\246\277\003\216\362>\032\372\"?5~\267\277\206\323e\277\333V~>\311\347\r\276\310\327\354>\356\256\t\276w\020<?\351\032\021?\026\1777?\325\344r\276\357\207\305\277\033\214\312=\213]\231?\000\275%\277]\243\300\276\343\177\372\277\342\256\212\276\341\r\036\277\212\017X=\323\000\221\277\207\313=?=8F\277Q\257\224?\333\346y=~\372\230>,pf?\340\236\356>\001\375\272\275q\373\"\275\2430\316\277/S\261?\266?\'\277?\321\003\277`\334G\277$Q\370\276*\261\377\277\356iV\277\221\344F=\367\033\246?)\315\233\277L}\203?=\023\271\276(\332\334>;~\t\300\236q\273>\275\213\000\277\214\322\265\276\366I\244?\333K\235>\360 \033\277\036\251a\277\003\375\256\277\214\265\253\277N=\312\276\020g\255?\005\225\024?,\272\035?W\030w\276\374\005\361>\001\335x\277\204\244\202?=\340\203>\3662\346?p^-\277~Q\226\277\216\344\345\277\021yy\277\234\\\276\276\335~\343\277\027\375I\277\230k{>\204A\006?\373J\253?\212\364\224\276>\345\200?}\351P?\223\326\203;\221\302\211\277\026]\362>\214\360\241?\353\336D?\222\027\256=\323t\016\277^{?\275\372\330\001\277\333\r\201\275H\021\022?\337\206\001@g\006\202\277Q\347G>9K\225\277\273;l?\365z\t?]\303c\276Q\200\233>\271(4\277\256\303\025\277-&r=]\033\270\277zRO\277t\267N\277\345%\271?4=h?\034{\224\277Z\340\357>\"\343\252\277\316\0136?\006\267%?r\362\200?\364m\234\277\001\265\200>\305\3556?\233P\236?\305\362\004@\347\311\234?\246\334\251\274\227\243>?\212.\204\277\333\303\206?u\245\200?\030bQ?\026\353/\277\304\327P?2J\213\277\233\261\256?n \207>\343\016\003@Q\361\362\277\300f|?\276\234[\277\307\341:\277\317\022\250?\377\251?\277\255p=>H\375b\277\232\005~?O\177\250?\210;\346\277\006\261:>\034\207=?{\026\017?jc\225?X}\231=\267\240\204>\345\014F>Ra\253\276\301H\256\277H?9\277<\304\177?\322\224\264\276\000h\350\276\357%\017>\362<\373\276\3775\035>\232\256\255\276\013\001q>\243\202\263?LV%\300\3148\273<\324\\\361\276\007%\r\277\225\217\033\277]\033\267\277\305\324\014?G\373\r\277r\257\354\277x\240A\276h\030\016?&WI\276\324\217\275\277E\"2>\220s\014\277\013\303\321>\361\021\213\277S\256\261\276\372\250\240?\236\334\234\273\332c\272\277\206K\210?\200\237\033?\262h\177=\344\271D?oZ\311?\312\260\023\277\006\014\223=\314n\004\300\307\356r\277\035\254\302\276\252\014\204?%\232\320\277\326\020V=y\3668\275m\036#??\037\021@\t\026\336\276\364\021\016?M\362=\277i\313W?B\265\225\276\226\240\231\277*\341\201\277\265\245\372\274\277\203\267?\201\333\037\277eGh?\333\223\020\277\n\224\370\277\327\217\243?\215\244\310<f\nS>h.n\277\221.@?uS\200?\2614\233\277\371f\241>)l\341\276\247Hh?\320\253\252?af\264>\036\364\020\300\313\341\n\300|\371\247>\366;\263\277\341h\273=c\225\207=VZ\200?\nJi?\354\362\344>\237\205G\277\216\336\267>\200U\206?\256\274O\276s\230g?R\204.?r\224p\277\355\263\025?\234\203\024\276\244xr=E\354_\276\303\333\017\300\\\227\"?R4\032?nA\302\277~\262\346\2763w\330=U0y?X\312-?$?\312?\206c\204\277w\236\271?\237\367k\277\365C\003?\3360\026\276\224\371\371\276\005\035\'?\207\277\252?\317W\264\2774\352\311?\370\010m<{\026\307\277&\321\005@D\224\250?\313P\203\276\327\317X\277\265\213\325?\271\223\304\276\355\241\202\276R\260\332\276\345t\206\276\2346\274\276\367\302\323\276\355;\201\277\013\334\362>hj{\277\345\244M\276\304B\242?\237\r\242?\\\363\n\277\025\230\216\277\003Z\277\277\006\377B\275\313\037\347>\334\'\010\277p\350\242\276\245\221\347?O\211\361>\277\031L\276\212R\301\276\302\346k\276\226m\221\275\326\375v\277\243\2109?>\013\244\277^\312+@\006S\003@\221\224~?\320T\004?\352\367\177?\376+\000?\301e\223<(\032\362\276I\344\373?\221\210W?\002\006\306\276y\354\323?\001\231\367>y\226\356\277\265K\274?\300|\214\275Z1\224?I+K\276e\373\246\277\210\005\023>19\007\277/\263\214\277\215~h\277\274\232\217\277{+\332\276{;C\277\036M\224?\357\004\363\275:\340\013\277\247\332\242\277\r\305g\276zHM?z<y\276\216\324#?:\202\252\2756\250\353\276\202\344\330>\376\233??\003H\255?\naY\277\374\033a><Y`=\243\353\023\276\327|\272\277\026I\225\277f\311\337>1\362\032\277\372\232\320?\313U\006?\341\031\216\277C\315r\277)p\270\276*\007W\277Q\001\340>\233n\266\277~\263D@Y\014A>\376\027\250\277\036\230\334\276\234\177\222?\300\352\215\277x.\360>\271+A?\032\031\341>YE\373=\360E\003?\\\241E\276\374S\246?\245\376\035>\321\277\243\277\241\266\247\276\374R5\277\037\233p\277\354\333\250?j^\\?\303\373e\277\333E+\300\200H @k8\327>\025\025\n\300\014\n\316?\032\230\352\276.&\352\277\205\277&\277\225\262\245\277UJ/?\276\026\005\300\221\020\361>\026J\001?\2059\322\276\324\316\010?\200\226\211\276\304\334\375\276\035\235G\277\321\210\371>\325\260\377\277\001* >\245L\325\277\252%6\277[7 \277<\255\335\277\246\335\223\277x\376\177?\364\321\216\276wQY\277\210\317\276=!%\020@\267\226%\277-y\023\277\362B\r@j\033\263?\325$\326?\351\214g\274i\347R\277u~a?L3\002\277a\366(\277\323>*?\002\314\232=\233T\252\276\013G\350\276\307\267\t?\032\022\017\276\247\006\003?\026p\013\300C\302\t\277\363q\207\277\316\246\014?\203\215\031<o\335\201\277\342\014_\277\343{5@g\351E\277\204\372\253=\346\000#\276\004\222\222\276\341\346\200\277\246.\217\276\257\2656\276\370\216j?\355\305\320\276\032\226 \27638\035\277\237\250@\277t/l?\374\213\265\276*{-\277~5\027>\363@G\277\210*\356\276r\275_\277\360o\016>\364k\214\277~\\\243\2775j<\277I\001\"?\243\3035?\316\021J?8\\\224\2761\272W\276\005G)\277\211,H>\014\227\025\300\005\327\207\276\320\307\037=\202\346-\276\303\340\177>l\325\241>\221\316\t?\275\305\250?Aj\243>\324\2660\277\223oU\277\256\256\013?\252\203\352?\220\342K>\024\rj\276/]\211\275\351!\323\274\247\374X\277f\230\244>Y\241\232\276\256!\331\277NO2\277_\236m?\362\370\310\276K\001v?\243W\002?\370\223\316>\355c)?\211\n\177\277\305\\\254?G?\304\277\2543\356\277S|K\277WX\242?\234R\260?\257\205\005\277\2645Y\277\303\344I\277\347\262\210>\315\346\212?\332p\354\276\324c\221?\342\306\005?7n\243\277\221y\254?\021\311\236?\311\256\023?\200u\343\275\\\364\233<\311\311\226?\017n\331>+\007+\277t\305\004\276/\205\345=\316\033\336=\240\r\376?\370%\013\277 \317\236\277\306\330\213\277-\221\213\276\347i*\277\023]d\276e%\322\275\002\355\270\277\317f\207?\2304\244\2775\240\311\277\205\014\'?\220p\036?\247\0007?\320\001\010@}K\300?\227Z\017\277\277\203\204<\000\"\006\277\212\002\000\2777h\247\277\274|\365>\005\256\271\276\273>7>%\350X\277\222\255\327?1<\r?\014\365o\277\306\326\326\277\313\230\335\275\343\030\332?\343\375d>tK\272?\274\212\242\277\353\367\204\275\204sI?\212\305\025\277V\034\262\276#\205\034? \333T\277\3072\230=\316\247\274>\327\312\344>4\250\n\277\201\211g?c\271~\276eU\375\275\246@\256?\033p\265>q\373\t\277Q\215\244\276\224}\247?>m4?\017\345,?\203\020\205=\306\\\001?\220\236\207\276\301\230,\277\013\326\362>m\232\375\277\021/\014\276\327\322*\277\036\237\231\2745wF?\333`\014\277jvW?\336\215E\277\355z\253>\210\360N\277&\320\236\276LA!\300`\'\203>\275\r\030>@\261\245\276\021V\006>\t\366\364\276X8\037?4\023O\277\372.&?>\004\301>4\345\220>u\023\034@\261\302\023@\rYQ\277em\206>\025\315\332\276I$\2749\344w[>\2673#\276\204\305\347\277\232\316\350?J*Z?L`\240?KC3\277\354\244\021?\340\'O>\224z\275?x\200\355?\021-\214\277\r\330e\277\273\252\374\277\000\027\334\2774\236\277>\270\316\236?\024\211\223\275)\270\232\276\2508<\276,T\250>\010)f\276m\266\324\276\222\245\274\277\244}\240=\027\373\353>\247\200\200>A|5\277\266\250\375?\227\341\027?Q\261n\277\312g\303\276\267#\001\276\340\272&?\361\2773\275\362*A\277\262\375f?A~\214\277\334H\252=F\322\375>\033m\274\277+i\344>\364=\021\300&\325-\277\260\0268\276]\363T\2772\220\256\276\370\243\244=\230\201N?\264D\304?\245\024\323\276ZD\315?\260z+>\213r\307>\314\357\236\277\266\235\020?l}Z\277\255\256\000\300|$\363\276\200\363\215?>\362\234\276\033k\267\277+-4\277d\\i?_\330\277\275\356\006\277\276\032\310\261\277\230\303\347\276@\233\343>\322}\372\277\r!\027?l\210G\274\036\260w\2772D@?\242\366\232\277\334\223\222?\374\333\254?\324\251\277?U\251\222<\3113\210=z\210_?&fp? \370\227\277b\363\014\276bz\317?/Ir?\232\234<\277I@\327\273\366\003\244\276\241d\323\277\321\324\334?=\030`?\263<\245?\213\365\377?x]\352\2764\261\232?\330D\n\277\r\344\317\277\2336!\273\225\203R=\330)\327\276\034\223\000\276(10\276*+\023@4\033\224?\026R4\300rl\240>\351[\217\277\227\321`?\365\311\363?\211\234E\300\0135\224\277\362]$\275\361\022\357\275G\005\001?;\031\373?@\241D\277\371\325\256>\t\333\222\277\262\3209\277\033f\377?\333J\332=>\364\362\277x\355\334\277\201}\010?\314\216\237\277=\364\305?\250kv?b\n\007?\2259\252\277p\302\003>\240\325\357?\271\305\021\276\344+~\277\354\335M?\253\250\256=\272\032\013\277C\373:@V\277F\277o\016z?\365Mv?\330\255\242>B\376{\277\210\245X\276\351`\264\276\t\222X?+9\\>i\245\\\277\230c\004\277\253\375J?\373c\262\276_\366\336\277j\323B\277B|\177\277\240[\351\276\212\361\220\276\017Z\373?Lh\321?e \215\277\340\330\236?.oI?\363M\341>u\031\243?\021dL\277\220`\211\276\370\210\020\277p\237M\277)z\363\275Q\347\206\276\330\324\007>\335r\231\277\226\231=?C\234\253?\212\336\010?\334\033\003?\342rW?\"\312\327?\250\344\335\277\317\355\310\277u\373\016\300s\330\307>#\340\262>_\250\013?\000a\330\277\031fX?\270(\257\276q\212;\276:\340\223?\342c\\?~c\265\277\310t\224\2773j\214?\346\271|>\0010\314\277\334\301\004\300ss[\277\265\230\312>\206\014\223\275\371\335\327\277\263\242\303?\327f\234>\310eN?p\363\245\276\3348\211?8\2323\277\021\223\021\277\034\351\217?$U\240?\3224\005@[4\302\277\013\247\301?a|\202?\226yF?\330\304\230\2767\030\231?\260\022\260>\315\245)?\031y\323>N\001e>\027o\352>\376\214H\277\303\362\244\276\037\331\205\275\337[D\277I\010d\277\0325T>U\'\313\275\255\334\247\277\233\222\216\277\210\330\220>\367\375\215\276\220\311\212?4g\241\277\034\272\334??\260J?\304\004\261??\2254\277\212u\327\277\214\273\230?\023\274?\274EK\027@J\327\321\277\036\225\224\276\034q\010\277W\226\325?\344!\013?q\210\324\276\034\376\004\275p\246\227\277\016\304\005>x\273\204=\300\245[\277h\356\233\277\324\322\017\277\031\272\376\277\306\031`\277\317\213\277\277r\202\360?\244G\240\2768\000\010?g\237\253?\220\336^\277\336\306Y\277eLn?|\217\235?\263\345z?\352#\342\275\2629\n?Y\345\246\27611\205=\220r\005>nu\253?\345\354:\277\006\247\006@\357;*@\273\014\252?#K~\277\205_:=\261;\020?\235\004\274\276bN\257>N<}\277\301e~?\0232\307?\3564\274?t\203\366\276\365P\263>\377\265k?\ro\005?\306\341\226\277\307k\n?\277]\251\2771\272\331?\251\216Y?<\337\021\300X\212\236>Ay\241\277s\227\353\277\302\\\t\277\221\200#\300\356\321\026\276\207\364\201\277\324\234\266?(\305\243?\205\326\377?}\257U\276\322\002\014\300U\321\226>\325\001\346\276>\240<\277\355\'\243\277\253\326\032\277\275\206\323\277\321\2122\300,